uint32_t weights[116004] = {0xce83c11a,0x1f40c863,0x0,0x0,0x5b88f803,0xf4f80ee9,0x0,0x0,0xf5ed238b,0x030df30b,0x0,0x0,0x727cee01,0xd5f734bb,0x0,0x0,0x4079130d,0xe8402628,0x0,0x0,0x8b23fef6,0xd7133015,0x0,0x0,0x79722173,0xd9df5bda,0x0,0x0,0x2a479874,0xfefb2dae,0x0,0x0,0x1b1c04f2,0x70dbe1e6,0x0,0x0,0xc388e6ee,0xe81e6949,0x0,0x0,0x8898da00,0x6bd363cc,0x0,0x0,0xf80ac7e0,0x19670187,0x0,0x0,0x2250e904,0xd70f8ec3,0x0,0x0,0xb8cbd8fc,0x633fe97d,0x0,0x0,0x7ac5fefd,0x2ff9cefc,0x0,0x0,0xfdfbc678,0x05f0fb0a,0x0,0x0,0x7d1c0904,0x27d9e6ec,0x0,0x0,0xdcfc881c,0x2a08e2ad,0x0,0x0,0x9375e400,0x12431b39,0x0,0x0,0xb8e30511,0x92f1eef6,0x0,0x0,0x867df301,0xee0a0af1,0x0,0x0,0x0ef80a8b,0xff09fbfb,0x0,0x0,0x1606f7fe,0x72f03408,0x0,0x0,0x443e1005,0x31f58a1b,0x0,0x0,0x047cf0ff,0x5a4ec449,0x0,0x0,0x3d3dee07,0xcd1c88e6,0x0,0x0,0xe7ea7b0b,0x085cfed2,0x0,0x0,0xe7f5f205,0x861b0102,0x0,0x0,0xfac9fc01,0x168fee8c,0x0,0x0,0x027b0509,0x26f7d0e4,0x0,0x0,0xdae0f002,0xea0268e0,0x0,0x0,0x19198ae3,0xde8e0b3a,0x0,0x0,0x09041786,0xfe0e0400,0x0,0x0,0xd1c3f4ff,0xf20b750d,0x0,0x0,0xd9db4278,0x1f43e8e5,0x0,0x0,0x10770e0d,0xe7cce68c,0x0,0x0,0x788ddb03,0xf02a07f3,0x0,0x0,0x208a05ff,0xccd44cbf,0x0,0x0,0x180ea149,0xe385085b,0x0,0x0,0x3d42c521,0xf159208a,0x0,0x0,0x05001185,0xfb0c00f6,0x0,0x0,0x626ec389,0xb2e553c7,0x0,0x0,0xd0c1d9fd,0x190f79f0,0x0,0x0,0x0028d20b,0xf7761768,0x0,0x0,0xd999c82a,0x700c602e,0x0,0x0,0x060eb378,0x010106e6,0x0,0x0,0x839ab821,0x3014c515,0x0,0x0,0x21f1120a,0x029e0d8b,0x0,0x0,0xf809ee03,0xf603f303,0xfc030e00,0xf6f30100,0x02e6ef05,0xdadcd11b,0x1ce6ee0a,0xf0190900,0xfb0adeea,0x01010404,0x091bf607,0x0001ebf8,0xf311ddfa,0xee00ddf6,0xebf41b04,0x08fbfdc7,0xfcd7e4fa,0xdebff909,0x15d9c80d,0xde2fe0fb,0x000ed3d1,0x00070702,0x0147e803,0xfefce3ec,0xfc07e701,0xf4ff0204,0xf5090e01,0x0f0b03d9,0x04f5e900,0xccd72be7,0x11e5d0f8,0xef20fe01,0x0307efec,0x01fbf70c,0xf820f8f8,0x0005f6fc,0x1209d412,0x2602120e,0x1efae1f6,0xf0ebfc14,0xf2c816fb,0xc6c8c843,0x3b25f511,0x1911dd08,0xfcf3db10,0x04f30910,0x0b0e0918,0x0a06031a,0x2413cbee,0x4e09f7e8,0x2e12d3eb,0x09cffb2f,0x15bb1d14,0xe099344c,0x5d56dbd9,0x2bedd8eb,0x07e7d81c,0x06ec1419,0x10501b06,0xed0e142e,0x0f0bdcfe,0x27f3c90c,0x1af3e3f5,0x1eff091a,0xf8c413ee,0xd08c3ffa,0x3633daeb,0x17e21d0a,0xffe9e103,0x03edce1b,0xd23515e5,0x0af20b16,0x12f0e50f,0x26001009,0x1c031104,0xf608030a,0x0ae51a01,0xe3db0015,0x1a3a00ec,0x28eff9f8,0x06e3f01c,0x03e2060d,0x0d051912,0x100519ef,0x26dde5f4,0x420f22f7,0x32fb1c16,0xf6c10613,0xf0db37f3,0xd7b81f3b,0x5a5ef6ca,0x4bb71318,0xfdcce538,0x06ccee0e,0x0f0e3a03,0xe50e32df,0x26ece8fe,0x20f1fe02,0x1c030d0a,0xfeebf606,0x05cf280f,0xe1b8f918,0x5244f418,0x26bc0cf4,0xfcd8eb09,0x04e8cf11,0xcd0a1ae7,0x0bea0cef,0x4a12f708,0xc5f3d6e5,0xf942e1df,0xb2d41c07,0x1e1cf602,0x2af4e8fa,0xdbe70a0e,0xf7e60d21,0xe9f1090e,0xf10b0715,0xeacc432f,0xbc0031fe,0xbc0f04ee,0xe4e8d9de,0xcb15d5e6,0x21f322f4,0xf0f7e504,0x12f110c7,0x16fcdbd1,0xfddf30e8,0xe512e82a,0xfd07e5ee,0x0dcf3031,0x04fdea2c,0xf028fff5,0x11fa09f5,0x1410281c,0x13f6fe1c,0x021e05dc,0x0dfbf0e6,0xfe13e7fa,0xa90dde03,0x29033302,0x020edef1,0xe1f61611,0x111e0213,0x20f0fddc,0xebecc8fc,0x11091f2b,0x04fb1c3c,0xf80b06ec,0xcbec2ee7,0xd1ec1d0e,0xeafaf006,0xf408f6ff,0x00101d15,0xebfff1ef,0xfa2c0600,0x5005f5fd,0x0a08ff00,0x1ff1f3f0,0x00041de4,0xfae4cc49,0x003df732,0xed0bfefb,0xf1d00efa,0xb7042605,0x020ae7fe,0x0f01f3fc,0xfb180afe,0x24effd03,0x1c071508,0xe527f901,0xfa25dcea,0x5209f052,0xc3c429d0,0x2ae8bbfe,0x15e92943,0xeb0e02ef,0x050001ff,0xfb48f201,0xbd0cebf1,0xbbfdecd4,0x1df63ee1,0x0dd722f0,0xeeffd2dd,0x2015cd25,0xe90ddbfe,0x24d11913,0xd3c2e61d,0x1a331b0f,0x1a0bf5be,0xe216fce8,0xff0837ee,0xdc2cf6d1,0x1d09f1ef,0x0fe5223b,0x150825c8,0x0b021a15,0xe4c0f1ee,0x3708d5f9,0x04040506,0x1803fa0a,0xf10a3d0e,0xf901050a,0xf5110b08,0xffe0e0f5,0xeaf7ea06,0x0802efe0,0xe401eef9,0x15fc1912,0x20050006,0x06fa34e9,0x105d0b16,0xea23e3ec,0xc4df14f2,0x1602b6f8,0xf110fed9,0x0cf5ed01,0x160c0639,0x02f70ae0,0xef054801,0xeef901f6,0x090a0aff,0x172415f6,0x26c6e7fc,0x11020019,0xf6081d11,0xf5080704,0xf3fb0626,0x06ea2803,0x07082617,0xfe0e08f5,0x0dfae209,0x1cf6ea17,0x2cfe20e2,0x2442422c,0xc1e63b15,0x0f1ed6ec,0xf1c50dce,0xa72cf4cd,0xf0e4e3be,0x00e70809,0x3935fd1e,0xdb001c0b,0xee1ddc03,0x18e40ab7,0xe7eaf5e7,0xeaeadaf3,0x2907234f,0xe3a7e60e,0xdaf3c613,0x0a4eb1ea,0xe31307ee,0x20090f0e,0xf218f9f0,0x2ce30de0,0xcac321c0,0xee10ef09,0x08f80a23,0xf82df6f6,0xd3f7fa2b,0x020ae80a,0x2313fcf5,0x100412ef,0xf4f8fb24,0xe80cf6b7,0x37f8df05,0x3914fe0b,0xe2ff35e3,0xf8edf0ee,0x0cec19de,0x1afff1fd,0xfdc00507,0x1f14ff18,0xd7f4b9f8,0x1ffd05eb,0x1615f0f7,0x02ecf22d,0xc819ff09,0x2607e7e9,0xd9feb518,0x48ebe3eb,0x1bf61f16,0xe72af612,0x1b0200e3,0xfb34cf04,0x1609e307,0x152c1e07,0x0df8f508,0xf7e818fb,0x0d09f22d,0x2fe8f43e,0x3cf1f8f5,0xfc071320,0x0b3318f6,0xec0a0d02,0x03f6e0f9,0xfbe7dbfe,0xf535fccb,0x161f1be7,0x16e1e310,0x162beffb,0x0aeb2f47,0xb9301826,0x2d0184e5,0xc4cc23de,0x329a2e0a,0x10d67408,0xf20807f3,0x31f976d2,0xef19d518,0x1c10ec1a,0x4f0a17eb,0xe667d675,0x61c9faf6,0xeb671ecf,0x2d2ef6ed,0xb407244d,0xe7eebecf,0x04321d42,0xba914ae6,0xe9052a2c,0x0fdf0b57,0xb6000c85,0x038e0cea,0xe4fbe70e,0xd8ee0011,0x0ccfea7c,0x1c56dcf0,0x95332efb,0x1a94c2b7,0x36a7ed20,0xe7406fe5,0x17403862,0x95f9081b,0x21c3f6bb,0xed05ebf2,0x1caa6b15,0x5c5330c3,0x74c5d625,0xd0e50e75,0xee0fdf0d,0xeb05ec0c,0xdadf265b,0x2b3c83df,0x1d0ed9f2,0x15184ec8,0x12da6f38,0x3315e6bf,0x4efaddf5,0x0012dde2,0x1b76b818,0xbe1213e2,0x0cda1a1d,0xb5ecf4e1,0xf9731d10,0x331d0d0c,0x27fc03fb,0x36362554,0xdd37ea08,0x080787f3,0x03f29dc1,0x1a16e9e0,0x7652c3ea,0x2407bb30,0x0c13e4f7,0xff13d510,0xdbf21c3c,0x2a378608,0x1dd12b2b,0x10007b22,0x24e8d4b2,0x2b980231,0xffc41be1,0xf8b4884b,0xbbf589f5,0xc13cdd31,0xcfe71925,0x1af1007d,0xa32233b5,0xb4ad2386,0x400bf7ee,0xdfd0570c,0xe7cc52b1,0x71d8ff49,0xfbf50fb9,0xf5a0e663,0xca0608d9,0xf5eafe9c,0x0e1c09f6,0x072e312b,0xbe27ff29,0xfefa84f2,0x0ef02ac5,0x1b9a2352,0x00228406,0xa41e9751,0x45dd537b,0xf3c470ff,0x9193466c,0xc4440dec,0xc4e52e02,0x00c5b740,0xbf0d121a,0x88ea2896,0xda2ee214,0xe7fbb757,0xcc13988b,0xf5a826c0,0x0bfddde6,0xf6eedc03,0xd6fe83e5,0x0609f028,0x516ebde5,0x43ba110c,0x00e0ee0b,0xe6b4fe83,0xcce80a26,0xe5c8e0b5,0x1f011ade,0xed177910,0xfe1cccd0,0x11f083c8,0xf8024a2d,0x0126baf9,0x3ef9fbb3,0x460189b5,0x970b4207,0xe705ca19,0x55285de2,0xecd9d8ea,0x3964d932,0x6df62ab2,0x17deefd2,0x32ae29c5,0x33cf3870,0x2258cd55,0x46401eef,0xee008912,0x2c1f79c4,0xc8e8df48,0x05ffb7e8,0x8be0131c,0xd91652f5,0x501dcbf0,0x4f3c7ac1,0x3f14d121,0x24cabc34,0x46d80fa1,0x1607054b,0xdb077079,0xbaff2d88,0x4994ccf2,0xfd06f6d3,0xf58a121e,0xe4de1508,0x14fae8ef,0x1543a5f0,0x3426ba1f,0xb6bb85ff,0x89e1dfc7,0x2313fc07,0x3a781336,0xd4402919,0x190ab7fc,0xb900c3f3,0x34390820,0xed86f2e1,0xe6e8df28,0x73388747,0xf8c519c5,0x251df642,0xcc900a9c,0x3710d3ed,0xe8d0f304,0xf2fb97e7,0x130bf439,0xcfdfb026,0xfe05ffb9,0x2424ed7a,0x1129fa06,0x04b6eed5,0x37dc78e8,0x18ef3cbc,0x3aa30bdf,0x774406e5,0xf6f8baea,0x8a060201,0xd0200f6f,0xfa41f721,0x79f40702,0x0df5d5ee,0xe5f609ec,0x111faf8d,0x3cd8f541,0x5e1d8edb,0x20d58f09,0xc4dc5e22,0x1f61fd2e,0x8fde05d8,0xafe43ec5,0x0f0376e5,0xf6fdd719,0xf207f614,0x5e0d08ee,0xe61d2165,0xde680a33,0xc210d12c,0x0b00c8ef,0xd620fb01,0xdd069414,0x45142b53,0xab1e02ca,0x09e0f621,0x17ab3d1c,0x398945e8,0x6a19e84b,0x13f4fa18,0xf278e3da,0x53e000f8,0xe2095025,0xf11e0b15,0xcd0a0366,0x7a0c351b,0xddff0817,0x79ebea15,0x14d75803,0x91f4e6c3,0x3dccdd5e,0x13e3e98e,0x66f5d9ee,0xf2467c05,0xf6d5e814,0x0604c5cc,0x1fc110c2,0x5cc63365,0x684f9051,0xe6ef931b,0xf91f32ec,0xfce51cdc,0x9e13fb34,0x2a04f296,0x4102bbd7,0x325070ba,0xcfbb292b,0xbaff0f1e,0x18e90908,0xdd4820c3,0x317d0b29,0x31ed9c43,0x1f982ac5,0x0d944b65,0x57768a51,0x02101310,0x7df51dbf,0x42a01d5b,0x2342ce59,0x22d3d30f,0x85d302eb,0xf43a2d1c,0x25eaf3f8,0x2501f5d6,0x2de2dfca,0x87eae5ed,0x1300f620,0x422c79e0,0x401cb008,0x24c5bd58,0x4c9217bd,0xe051d2c1,0xe0db8d52,0xa3e00645,0x0e51ac98,0x0a73dd68,0x51beebee,0xff2efb13,0x34c4fad8,0xc7a5ec0b,0x39d93b8f,0xb4f5d3e0,0x4ce2da8b,0x04f95239,0xd2ebf2c2,0x04e2f2a7,0xd8f885de,0xcd1af5d7,0xd387f663,0xbae310f9,0x1aebc5fb,0xf62f061b,0xbe1dd74b,0xca1a8ca2,0xedd607c6,0xbf080b3d,0x00b7dd34,0xd7d1ff02,0xd3e71d88,0xacf48818,0xfc183503,0xd4e424c7,0xb326e934,0x7424d30c,0x041a17c1,0x4127f7f6,0xc70f2bcc,0x87ede91a,0xeef0ab15,0xe8fe0260,0xd741ce8f,0xdc13d60e,0xf4d38ef5,0x8816f63a,0xd239e0c7,0xcbfea597,0x0802c2fd,0x6d5782bf,0x41ceb919,0xb2e1d611,0x29fcc34b,0xc37dd4b5,0xc3a422b9,0xff257597,0x1a16d223,0x0eb2e2f0,0x411325cf,0xe6520a2b,0x7cfdf9fe,0x0aedeaf0,0x0c1602fb,0x00e2b287,0x7209d53d,0xea62571f,0x0dd84538,0x3a15f2f0,0xebfd1d53,0xab292d99,0x4e83de2c,0x07270b07,0xd1f5ba79,0x48f70d43,0x9633e40d,0x48fbd790,0x5afcee74,0x9f35613f,0x06f2085d,0x435eadd2,0x29050923,0xfa87e20d,0xbfc3d199,0x790ba314,0xcee12118,0x4bca15ca,0x761ad849,0x45d2d513,0xfad37a32,0x1b012eb6,0x2dab0e51,0x1ccb2437,0x89f410d4,0x1765a6f4,0xe44df734,0x270be64c,0xb0c84dd3,0x38453d42,0x768ece74,0xe8ffe256,0xecca13e3,0xf27c2ce7,0x10331528,0xe304892d,0xef082fdc,0xfb0625da,0xb411001f,0x0fea1bbe,0x4108b5a6,0x07106b95,0xf2e3c2e4,0x5040cafe,0xedce2248,0xa5412526,0x42dd8aaf,0x7613d2aa,0xf3f50814,0x0a9cdb39,0xbbb3e29e,0x0c1a0606,0x01ed001e,0xfe1ee4f6,0xf5fde31d,0x00f8fdf0,0x0905e7fd,0x01f90afd,0xfd01f2fa,0x000801fd,0x0a12ef1f,0x07f2f715,0x03fefddc,0xfc3f0402,0xd9151751,0xf20fdcfd,0x04e43851,0x18c7fd07,0xefea1ae6,0x18ca33fb,0xf2e2b6cb,0xd8db0c46,0x0d09f9c4,0x39171edf,0x0dfcf934,0xf2f80a13,0x0805f125,0x06e3e700,0xfe14f31d,0xf3f0ea0a,0xfef50106,0xecf50d01,0x180bf6fa,0xf5fcf635,0x060f1c13,0x0df0f90b,0xf4000418,0x0e33f812,0x12b0eee2,0xfd5af218,0x0910d418,0xe811ece1,0xf6d71514,0x0401ebf7,0x0c0f2820,0x170e10d0,0x0f0bd9fd,0xeefdf934,0xe30025a9,0x460cb7a3,0xd96730ce,0x0140a131,0x6bba416b,0x42531b06,0xd9e7b646,0xc166c831,0xabac370b,0x009fb7f7,0x14ab17bf,0xad36484a,0x342ecb06,0xc9d3ec08,0x1debe8ec,0xfbb8fb04,0x961cda06,0x0f028f31,0xf5b13310,0x3a1df2f9,0xf2543bc9,0xa0f83f3c,0x0bff36fa,0xd205fd38,0xf2fcfc0a,0x17040d11,0x00e8fbcb,0xfe240ffb,0xf612f7fb,0xeb0ff2f6,0x020008f7,0x00070100,0xf9ffff0f,0x080cf8e6,0xfc18e410,0x01f4040b,0x0bfdd8f2,0x1bc126f3,0xd5100ef2,0x2b1068d2,0xd0d61b39,0xecdec403,0xf9d2efd0,0x05cd0602,0x61e7c843,0x561019ac,0xbb0207d7,0x2ffefcf6,0xd00136f5,0xc0dd0b0e,0x0af9fee1,0x0cbe24fc,0x3200f918,0x03fca61f,0xfd0906e8,0xfef9fdfb,0xfd0df9f8,0x0e13eaf5,0xe91e090d,0x08ed0409,0x1e00032e,0x061d26f7,0xf4fde5f9,0x0f0200e9,0xf5f6d5ff,0xfaf6c804,0x1304fc00,0xfcd01611,0x0d08e7fb,0x15ea0524,0xfdf60106,0x08fa04c2,0xe830fb08,0xeae41608,0xf6d7d8ed,0x41f60722,0xfcfccee5,0xf908ce0e,0x02040034,0x202645f2,0xad06bf1b,0x0008fa61,0x32e11315,0x190414e0,0xf8f3fe33,0x0ecd0a17,0xfff1e044,0xfafffd05,0x09b5fffe,0xe5f13a11,0x14f9fa24,0x0fcf07fc,0xf6fc00f4,0xe2fff836,0x07fbf8da,0x0af813f3,0x0de90101,0x253baa0c,0xf7d80313,0x28ecfaf8,0xf01fc5ff,0xf1f8cae2,0x0b0705d2,0x02d904ed,0x4203c80c,0x3c500df7,0xff0e2b2e,0x1afd10cf,0xee0909f3,0x9f11dbca,0x66681909,0x223f304a,0xe8521632,0x1348d13a,0xb53442f7,0x317615f7,0x2f3a5a45,0x2c0a4ee6,0x1b47c4b8,0x2c2cb457,0x40acbf2b,0x34b92102,0x16e7fec7,0xc613fdab,0xefda3006,0x31fed913,0x05f7fc4c,0x09ee0314,0xbb0f32ed,0xf400fdec,0x011a0105,0xdd0a0b32,0xf5090528,0x0d15a419,0xfcfb12eb,0x02edfd0f,0xf4fc13fe,0x04f420ee,0x0e00f8e0,0xf7ecf2fb,0xf4fdfefa,0x0bf6ecf3,0xfa0008fc,0x05ff15fa,0x0ae604e2,0xeb1dc208,0x16db4e0a,0xc8df07ed,0x9e2c50e9,0x270303e0,0x0c0600b7,0xf8fceb41,0x2d0424f4,0xe71519a8,0x00d3f3fe,0xbb08ff48,0x05fbfcb2,0x0efc39fd,0xfe051900,0xd7f4fefc,0xddfaf6fb,0xbefbc4fa,0x12f8fd00,0xf5d9eacc,0x02f8ece8,0xc90810e7,0xf8f4fe0f,0xf40306f8,0xe54300e9,0xdf00cdfa,0xdff0c419,0xf7a8f403,0x28b2fe13,0x0c571bff,0xfa0eeae2,0x0ddf13da,0x2af20d0a,0x1a0d11c3,0x361e1449,0x33f5fed8,0xdff824ed,0xa3e7e9dc,0xfbcce048,0x17fecd2c,0x54cfd306,0xf7f2f0b7,0x2de7da16,0xffdd1ded,0xfadb1002,0xf42206e1,0x0ffaebd2,0xecca0db1,0xbf47de60,0xed0f520e,0xd8d8dafa,0x07e753f6,0x16dde8d2,0xfe67f5f3,0x04bcd6e8,0xfc54f7e1,0xefc5ef0b,0x04030fe9,0xe2e517da,0x0033feee,0x1101f907,0xfdda15f0,0x18e6fdea,0xd71aef16,0x1ef81544,0xf6c61fff,0xf7f4fb19,0x3d3effe4,0xf7f006d4,0x0101f00a,0xe3081204,0x2419d0ff,0x03f82010,0x1df6e9f9,0x180023ef,0x6027be06,0x171a0acb,0x3600ed45,0x0f6445e7,0xf131d93a,0x3a3d4aec,0x5028e9d8,0xd1d1ea23,0xe40c37ee,0x060c2c1f,0x03ea08ff,0x3ef20add,0x03c7cd11,0xb3014700,0xe4121633,0xf00250ee,0x4f120af3,0x36f9f8c1,0x0df602f3,0xb3ea1021,0x083111e5,0xf7040819,0xc51febef,0x1b25e723,0xd8312eed,0xe12053c4,0x45dab1f6,0xf7f50bc8,0x3932ed46,0xf6bfbf2d,0x04f5fce7,0xfe200508,0x12f1ebf1,0x13e20700,0xee3dc51b,0xb19ed04a,0xe9200dcc,0xe92c1eff,0xf53e0bd0,0x3dd2f128,0x29fb4208,0x04d50d01,0xb6fce7c2,0x12f4caf4,0x1fd2e8b2,0x2ad0bcbf,0x18fe643d,0xd0f00322,0xf8291219,0xf5080e01,0x1d1eeadc,0xf2e20802,0xf8270c27,0xd9cb0441,0x4d09e6d1,0xddb5fe32,0x08204814,0x0ff70e05,0x0e03070b,0xc713063a,0x29f4e6f0,0x4e0c03f7,0x170ed9f2,0xf61afbe6,0xfe150628,0xfbfcff19,0x0ed1cefc,0xf25246d7,0x0301f34f,0x205813fe,0xecf44232,0x0a0ef7ea,0xf40beaf7,0xf50413e8,0xb910fdff,0x7207ade3,0xd5aed1e3,0xf1f4d9ee,0xbdec37b6,0x0c2e8d3c,0xeff12f05,0x0d0d3d55,0x0b23242a,0xf0e4e4ba,0x36d415f5,0xeb14002f,0xea06fab4,0x04ebef04,0x1a2ee4df,0xd6f7defc,0xf7364e00,0x60d2f6b7,0xf048c720,0x1ab0d8f3,0x1e3bf1f8,0x0db4f003,0xff0ff205,0x33051cf4,0xbf10c31b,0x0d56c60d,0x55fd1218,0xa745fe1f,0x2eff08ff,0x0745f40e,0x2809e6a1,0x200c03f2,0xc6e1efae,0xdffe4ffc,0xd5eaf7fa,0xe438ff0d,0xfb242412,0xd20504cc,0x2e1fcfee,0xf8fa031e,0x0b262720,0xcbfd1e1d,0xf9ec0ff2,0x07c4e3e2,0x2b24e80f,0xe4164e1a,0x43ae3acb,0xf32623ea,0xf9f2fdf8,0x01f21dff,0x09fff5f3,0x235e5ffe,0xed2b21f6,0x55e31134,0xfdd72e1b,0x16d9e82d,0x09d4420d,0xd424301f,0xe1f210f8,0x16fe03e5,0xe50115f0,0x0a01ea55,0xf4a76415,0xecdaeacb,0xe7cdbc3a,0xfc17e5e4,0xb1d92714,0xeff9e9fd,0x02afe15b,0x090d0b09,0xf931e53c,0xfad7dc3f,0x03ead107,0x02d40911,0x17481210,0x2fe854f5,0x37b2ba2d,0xee9f09c2,0xe8f90be0,0x02def0d7,0xc6f7fb37,0xc51e48f5,0xdd3bdbd7,0xba2df721,0x10ffe70a,0xefab0302,0xecf7d204,0x1bf9f61e,0xe414ff0c,0x3f49ec2f,0x4ffe1a29,0xb70b09ba,0xec05e7fd,0x131910fe,0x160cd1f3,0x1bea2f0a,0xdfbff9f2,0x5418e210,0x3fbacd03,0x459c4c0c,0x1408f211,0xf6e3edff,0xf0090913,0xdc0c0c04,0xfff9ee1a,0xcde8a2d7,0xd92bd5f7,0x042cc90c,0x24e1ff13,0x01036533,0xc7e9fafb,0xfc16a8db,0x291122f9,0x26ecf83e,0x06d81055,0xda2f0e30,0xfe290a13,0xdbc625f5,0x280d08e5,0xd323fafb,0x4a1ff22e,0xfd3be9fa,0x0821500f,0x1a07ef1a,0xe4fb2e11,0xfa1304d9,0x19e806ef,0xd708fe03,0xd4b4e0c4,0x2021f9d3,0xbfa0c6db,0xc3f0b415,0x3ae0cd20,0xebd722cf,0x272bfd1e,0x2f1c1d05,0xf965192a,0x1eda0910,0xf78deb11,0x51402c2e,0xe7f3caf5,0xbf1e0beb,0x1900dadb,0xd3fcd616,0xeb1527e7,0x04d3c520,0x21ad254c,0x2b50c4f8,0x1215c019,0xcbe0201e,0x22eefd0e,0xe9e7fdd6,0x34fcedee,0x23f510eb,0x280ef6e7,0xef042c24,0xf31c00fd,0x29fb1013,0x09f1fb00,0xf7f2f902,0xdfed18fc,0x03f548bc,0xf303f0cc,0xe9cb2467,0x2a0806eb,0x07f4f717,0xffda0e13,0x2e2cfb04,0x04eff127,0xe5eccaff,0x371c9c17,0x1522fbb9,0x00ecf23c,0xe7dafee1,0xe2234f01,0x14f123f6,0x1bf4c5e8,0x0dee5b17,0x2ef3e7d8,0x03dd490d,0xc0cb1229,0xfdf1f512,0x03351106,0x0715e8ff,0xc8f40c13,0x1e49fdf2,0xfafbec34,0x42290900,0x0b2d0345,0xeafcfebc,0x1116efff,0xf61bc726,0x2e5bec20,0xf03406c0,0xe7afe1c7,0x91a8d7c5,0x1e2cb50d,0xf9fffc1d,0x14ec0b19,0xfc1ffe20,0x32220f1d,0x290fd907,0x4721d846,0x2c26c6d7,0xe615a9c6,0xdd1af311,0xe4f32a18,0x1c0605e7,0xd4f3fd1c,0x30dce2ed,0xe244f613,0xe9d302f2,0xfcc9e8fd,0xef04dc25,0xedea11e2,0x1af63703,0x3ae00b3c,0x671dcdfa,0x44311c1d,0xca215954,0xdcf31a4d,0xd2430919,0x0a31d1fb,0x190a0f2a,0xedd4a4f3,0x03f21314,0x5b24f55e,0x4e3a29c8,0xdc9cf2ea,0x0b1ce1e5,0xe70decea,0x0cf44dfd,0xc5f20ee7,0x28e4dbfb,0xf4f102d8,0xcdd0f731,0xe0d106fe,0xd73fe120,0x0124dede,0xc8ef1723,0xff05f5f6,0x19eb1f56,0x1405f723,0x2023e601,0xdfdd0c24,0x2dff01f4,0x2112140e,0x1aeef732,0x16cd0bc9,0xdfcd3c19,0xe503070f,0x0a0a3ceb,0xcff8f91d,0xe6ffffe9,0x30164725,0x231f1e12,0xf5fdead2,0x45cd0df2,0x1e2018ba,0xc3cc38ef,0x4fd00dfc,0xac2afa27,0xac29721a,0xcbc39bfa,0x4e3b7307,0xfbe1dfe5,0x1d6bf210,0x77444aad,0x07f0b006,0x0583be22,0xf4cecbdb,0x31062125,0x17fcd684,0x6f2ca9ef,0x0b3140fb,0xeff81618,0x73c1401b,0x8207f4bd,0xaf00633b,0xa2156322,0xdcfc174a,0xdff60048,0xf0e9f722,0x108fc749,0x2fe0fec3,0x08781200,0x29a5f311,0xdae30502,0xee220e2e,0x5a3d400c,0x091ffc01,0xe2f186cb,0xa8d4cef6,0x4cd62b3e,0x6902bde7,0x21c683cd,0x35a7e975,0x1a32ad3e,0x2aebebe5,0x2c130904,0xebb732e6,0xeedc0fd4,0x35e1c41d,0xd8f67a1d,0x0c0c2f4b,0xc4dc2def,0xfdb9c312,0xeb0a72fd,0x43d9f87d,0x162baf3c,0x6a0617f4,0xfb0922f2,0x3f01db32,0xe9d9b5db,0xefcff577,0x1d5eba59,0x0596a1c0,0x84e5ca15,0x2b3a1c02,0x30bbebe5,0xa4f12c7d,0xa30611e0,0x0db5f517,0x1e8aff07,0xe715f3f8,0xbe99091f,0xd2f68805,0xf104f822,0x42ab0379,0x4361876f,0x5c1b5713,0x1bfffbd6,0x110b2b01,0x0deff4ef,0x05fff868,0x368512e4,0x7d3707c8,0xfb0ae7f4,0x2adbd83d,0xfdab06a5,0xe9f35917,0x0adcf30e,0xf24d0bcf,0x3e74fe0f,0xd4b233da,0x9f13f3e5,0x0af4f00c,0xd4ee7c43,0xaebb59f6,0x355570c7,0x40199e28,0xceecf8ec,0x3d960c14,0x19f43986,0x3656d014,0xceff49e1,0x1a2f242e,0x7de5f3f4,0xebdee2ff,0xe20c0a18,0xed1fe83c,0x0bf8ebe4,0x037a0aed,0x173827fe,0xa6e97d2b,0x1bc2e70a,0xe1332538,0x77f11d54,0xf3a1b093,0x11252b18,0xd584c2e6,0xa4d4bb3f,0xeae4e57d,0xdc131ef9,0xe7950eee,0x4b07fae1,0x0160a928,0xf17223c8,0xf5f02d18,0xd6ca12d5,0xd9f87c22,0xfa0a01f0,0xf74dfa0f,0x2d272000,0xf323e027,0xf9f1e5f2,0x31ea037b,0x1e5e9916,0x9ad02615,0x34feecf2,0xf4f17838,0x19e23e94,0x91f31606,0x482a38db,0x6a04a815,0xeeec25e1,0x0dc8cddf,0x50023f77,0xc31a1c6a,0x120f2606,0xe45a9cd2,0xe485be4b,0xf2c6e2b5,0x5b465019,0xee24e2ed,0x37890d14,0x1adec604,0x0eebeff3,0xa2e43119,0xfb3005f4,0xfeaa2241,0x0684f255,0xb919db05,0xe4ed843c,0xeefc2355,0xc945f2be,0xfe0b2a06,0x43774ef8,0x0a36061c,0x0d0e85ae,0xef1b1012,0x7ae818fe,0x2fe5b0f1,0xe510f00e,0x0c4cddfd,0x0aeeea7a,0xcc012aee,0x203197e4,0x1161bb0f,0x1d87b54f,0x03df03d8,0x491e200c,0xa62dd90f,0x75f91a1e,0x52f7b1f4,0x20ffd7e3,0xe2f31b79,0xa0e6fd14,0x1fc8cb0b,0xdd0734be,0x2a890cfc,0xcf0c28a3,0x242cd803,0xac004fe9,0xbf3b97d6,0xfd8abf28,0x1d9acabb,0x38457b2d,0x0d047db5,0x0807b631,0xf1efd314,0x5b180cd0,0x61e80304,0xe0e4c907,0x82df4208,0xd3f9fd2b,0xcdd72df7,0xe26b10d6,0x16050310,0xeef9331f,0x321901d9,0xea15201a,0x25e214c1,0xdc7b02b8,0x0b030710,0x1a181b08,0xcf252910,0xf1e783fb,0x200084f7,0xfa191afe,0x05ade706,0x8e98d9fe,0xcec423f4,0x015bf03b,0xecf4f0b4,0xff46de76,0x075483e5,0x2a3c9630,0xd7d6f4ff,0x59d3d9f2,0x272ffec7,0x2284b02c,0x0b63ec06,0xa3d7a641,0x570e210d,0xfc31f5ed,0xe93a8cf2,0xdb16e654,0xf604e883,0x2e98d5f7,0x39f40907,0xddf64427,0x7b5563d4,0xd90dd413,0x4531f12f,0x3c001d96,0x7183fd1b,0xa4edd6de,0xa1d44e14,0xde103c1d,0xf9dd03eb,0x0e863913,0xfdd43008,0xd9f1ddd2,0xc1160f26,0x36fbf56f,0xc12bd884,0xdb9824b6,0xc8270e0a,0x1ff6c97e,0xd915feb1,0xc1da1dc6,0x7b3ac517,0xda08ebf5,0xea228cbc,0x641af96a,0x2edbcae4,0x0b73b0d0,0x2e51923a,0xb7ca4826,0x8753e076,0xe310e20c,0xe33437cd,0x4e3e3366,0x47799120,0x13dcfa1d,0x2ad202e7,0x3f06cd39,0xed639c05,0x0c45b913,0xc1cc0100,0x78ec1204,0x15fba2e4,0x01131dfb,0x20b9ee2b,0x8c83f3ea,0x15d908ed,0xf1370a15,0x0e0114bf,0xd67601c0,0xdb4ff4e3,0xcbfbfacd,0x35f0e1fd,0x0b1872ff,0x1ff5f9eb,0x29fe1a0f,0xf7112508,0xdee68432,0xd3facd1f,0xd7f18df6,0xe509ff7c,0xed41e1dd,0x8b21f049,0x144fe210,0xf12827b4,0x24741058,0x3900e4eb,0xd583d42c,0xc7e92ffd,0x03ecf70d,0xdb5fed37,0xf9c00645,0x359d6d09,0x5eedff7b,0x4f7ac91f,0xf0d4f6ff,0x4c20073a,0xb8b11ac5,0xf37af3b0,0xf3ccc671,0xfbd820ec,0xff088d2d,0xf71b1e16,0xe8f1aca3,0x18f317ae,0xf2d885ee,0x4a5a3403,0xf89c2132,0x76f0273b,0xc5d3d240,0x62e6120a,0xc845f130,0x9c237b1a,0xddc891f4,0x86d20c33,0x01060414,0xe32a14ca,0xee62fc75,0xce43c67c,0x05c40604,0xf5333506,0xf6fa0a1b,0xa5f5e912,0x04198634,0xa940d80a,0xaef21289,0xc60bf1c4,0xe89001e7,0xf2d4c7ee,0xf9053a01,0xcd4121f0,0xce7c48d2,0x2d320f2c,0xcdf42f06,0x5a96112a,0x49ea4dde,0x1502ee0e,0x35f9e51f,0x150626b4,0xdb1a1225,0x17c4e9e6,0x8c2be3f3,0xfc03eae2,0x0e85e523,0x13de00f5,0xecfb0208,0xc5f5f3f8,0x31860bfd,0xefa36e15,0x2be029c7,0x262f221a,0xf90a265c,0xd2123083,0x0c93131d,0xf6d1a90d,0x0987935d,0x5f83d8f2,0xe9f97b35,0xefae4df3,0xecf6f8dd,0x4aefc90a,0xf9177913,0xb0ec2222,0x2606400a,0x7719d4fd,0x12edf5c5,0x30babaac,0x86fbd819,0x154212ef,0x00e7f414,0x0528853e,0x0f0605de,0xfced0b07,0xe5b20bf9,0x26d6ec07,0x1a142efd,0xedddf91a,0x241506eb,0xd3ed1923,0x13df1619,0x12f41e13,0x28252c2b,0xe91ffdc6,0x1df50f25,0xbf1120cf,0x213202e7,0x33abe229,0x2c345bc6,0xc321f02d,0x342835e3,0xb0f1283a,0x28fefa2b,0x17de362b,0x254e0f35,0xf838cea0,0xf6d91617,0x002e30c3,0x3a44e2e6,0x25d2e833,0x0f2a37bf,0xd2faf61d,0x26122ce7,0xc6f91727,0x1c12d41a,0x05ed2714,0x0a26d825,0x0c290dbc,0xd7e011f4,0x3b2223f1,0x2d2217ee,0x2bcfd6ee,0x212634c8,0xa5d5e92d,0x352223df,0xb2ce1d29,0x2a06f5ff,0x23dd2630,0x38494324,0x3028d5cb,0x2dd42233,0xede22dc4,0x17e40ad4,0x4ca2bee0,0xfc5052ac,0xbf45cf54,0x514843d6,0xada44250,0x422a350b,0x36ac4650,0x3d5f063b,0x2d4902bc,0x03b13bfc,0xffb841a9,0x39fdd3b2,0x37c4d505,0xea4341ba,0x94d6e432,0x3e3942e0,0x9fd62737,0x35f6f305,0x1ad92e23,0x263bb727,0x0a3a34c6,0xc2cc26d3,0x11c930d0,0x52141dcd,0x11ece1fb,0xea131bb1,0xd0f5ec1f,0x1a1220e8,0xbeda132b,0x1915dde0,0x1ee71920,0x192d2e13,0xed11eddf,0x1ecf1813,0x220722ee,0xf2d500e2,0x28d9d2e3,0xdd2923b8,0xc72ddd30,0x2a2d28e1,0xabba264a,0x2df516d0,0x26ce282e,0x2d25ea11,0xd5252ed6,0x10c726e7,0x022630b6,0x0cc1eab8,0x11e9e5ed,0xe7231be6,0xeaeceb1c,0x1d272df1,0xc3d7122b,0x1fe914e2,0x15e4190e,0x2311c619,0xe41807d7,0xe0e61cde,0xe60e1fc7,0x39c718d0,0xe31d1b1f,0x241bf91d,0xf415e5d2,0x20ce24dc,0xf0ddddda,0x1dddd918,0x110d1a10,0x1ce7e025,0x1bf2d907,0x1c0114b3,0x1a0f15f0,0x0afebd17,0xe033261e,0x3a2f1b35,0xcf28d5c1,0x33d42bcb,0xdbcfccc3,0x26cebd02,0x1ee70121,0x28d0bd3b,0x21e3bf1b,0x350528c4,0x2d291fef,0x12c9ad01,0xe5221609,0x261f1726,0xe41cdcdc,0x21f215d3,0xdee8dccd,0x20cfdfe4,0x12d6df1c,0x20e0dc28,0x20f6d8ee,0x22fe1fb5,0x23260ffa,0x10c3ece7,0xcc300a27,0x322a1228,0xc71fbfd8,0x31cc26c7,0xcfc9fec5,0x0fa90826,0x2b34261c,0x2ed9cd2d,0x2bd5d9f9,0x36f7239d,0x262621df,0x13c7b022,0xaa53f740,0x503a5149,0xb53fb7c8,0x52ae38a9,0xb4cf029b,0x17ab0300,0x4af80731,0x47b2a25a,0x47b4ba2c,0x52f148bc,0x534543c8,0x1ea49ef8,0xce34fe23,0x352d3432,0xc623b6da,0x3fc726b0,0xc2c7fab0,0x0ba407d6,0x27cbd322,0x37c6c736,0x3ad4cd22,0x36f22fae,0x2f332fdb,0x18c0bee2,0xd815e70d,0x151a1310,0xd417c7e7,0x13ee0fdb,0xc4cf26dd,0xd7c3141e,0x19361d15,0x21e5df1a,0x20e102d3,0x24f11acf,0x1e2514e9,0x14c6da18,0xc724db2a,0x252d3c1b,0xba21c8ce,0x2cc12ad7,0xbbc731c1,0xc0d43803,0x2c1b0620,0x37d1c22b,0x2fcdf1dc,0x3ced2edd,0x3b2f22d6,0x1bbcbdfc,0xde17eb21,0x161c291a,0xef0bd1e7,0x27c622db,0xdad120d5,0xd2c629e3,0x19e9e010,0x2ededb18,0x20e5f205,0x23eb1fc5,0x1b0f1ce0,0x16efa7ec,0x13080e0b,0x1108f41b,0x06fff502,0xe4f6ec02,0xf7cb0321,0x0124e7e8,0x2e0e2814,0xf7ff2003,0x18e31c18,0x0801fcc1,0xc62503aa,0xeaf70af2,0xf6fc60f5,0x061dcf03,0x220e0905,0xf3e1ebef,0xf9ffcafe,0x17dcaf22,0x1afbf9fe,0x110efbf6,0x1328e7f0,0xd6d93ab9,0x1c0803c7,0xd61300e2,0xfa3af01e,0x0e01c10e,0xefdfecea,0x0c0206f3,0xf68efa17,0x2aa8e709,0x27101855,0x1ce5cafc,0x1910f0cf,0xd2d4eafc,0xd51bf5d5,0x1cf8edea,0xa5efe611,0xfa05f3e7,0x30a8f706,0xff080e0a,0x1405e9e6,0x02d71c20,0x333a53e2,0xfbb2f752,0x16280f2b,0x3d00d545,0xef211ae4,0xf9bfc2fb,0xf92bc002,0x380f0501,0x29fab613,0x59ddd6dc,0xd5c5f224,0x1e2be34d,0x230c35e3,0xf7c8dd4c,0xc6002c39,0x04c51dd4,0xe8def2c8,0x2d0dfadd,0xcd1b39d0,0x26173926,0xe807dd19,0xf0dde9c4,0xf80df3fe,0xf300fc09,0xf3eb0bfb,0x1904f0f6,0xf544231b,0xe5ed19f8,0x02bd12e3,0xf56d18da,0xfc2da222,0x30033823,0xe5d1fcde,0xbc32f0f2,0xc139111c,0xf50d0715,0xc14117f1,0xf7122cc4,0xf2f407f9,0x060bf9d7,0xfb3d2b1d,0xeefcfbf5,0x34ec30ee,0x2fe51eca,0x2d1243e7,0xf49e32fb,0x586f24fc,0xf0f4f700,0x21fd3cfe,0x01fdfaed,0x420509fd,0x0c2b04e3,0x1b1042fe,0x21eafe11,0x0efdf0f6,0xe1f1f8df,0x08e908f6,0x02141af8,0xff0e07e0,0x08f7f130,0x0fe70801,0xd420dabd,0xfeeac450,0xe0e0cee8,0xfe0afccd,0x05f7160a,0x03ee3411,0xe00ee82d,0x07d5d1be,0x2bfb0cf4,0x06f3f702,0x4d2f1202,0x0ae5df23,0xe1e5e106,0x2026a32e,0xd8d0ddf3,0x241b11b1,0xd5e6e6f9,0xdab600ff,0xbad3220a,0xf34fe4ef,0xecf30c28,0xed1015da,0xec39cc0b,0x0ee1fd45,0xb9222dfd,0xff0d0116,0xfc1ee9fe,0xe601e00e,0x0afa0321,0x0af5f4f4,0x2ce6d21f,0xeaf1072c,0x4e0b10f6,0x1f45feb7,0x1d14c510,0x033a0c1c,0x0b17fb43,0x17071014,0xf623db08,0x0a09dafb,0xbf0f0efd,0xee0afe09,0xfcfcaa1d,0x0af21de9,0x25e90329,0xfdf3f719,0xf122f2b7,0xe210232b,0x110f0759,0xf3fed9fe,0xe5ece5fe,0x0518ea07,0xe9fde0fb,0x0f172715,0x17412537,0xf7f5eae6,0x210805ea,0xe50b0714,0x0823ed06,0x01d5ee13,0xf4d022ff,0x1620df10,0xb40bdcad,0x00061ff2,0x072bb628,0x25fa02ef,0xfd04ea0b,0x262bd118,0xf9132e0a,0x4314fdfc,0x084911ff,0x9f4af808,0x0631152a,0x220f3518,0xd6182102,0x5e262b0f,0x1329ec11,0x2f57d044,0x20d33107,0xd51e0e4e,0x21131626,0x0a19c3d7,0x051d4e01,0xf615d24b,0x0817e897,0x0e0a45d8,0xbedefc2e,0xe9f719a0,0x1be7f2fc,0x0adf0e03,0xff01eb05,0x06ff0b08,0x0e0c06ee,0xc2d40a3a,0x4b390619,0xe130f70a,0xbde3ef56,0xfff943b4,0x0ff3ffed,0x07ddb9cd,0x32e9ebf6,0xe93708fb,0x2ae3f16a,0x03aa0ade,0xef15ddff,0x096900e4,0x0317f6eb,0x3261e3e9,0x00fdecfd,0xc704dadf,0xe32d06f5,0xe60f0a23,0xc01be60c,0x12170fe8,0x091818ea,0x12d212ff,0x17ef0822,0xe2fa2642,0x3a11f4a7,0xecfe1903,0x1333dae3,0x69fdcdd8,0xee07d103,0x11f2ec26,0xf123e305,0x1cd60c0a,0xf512f82f,0xfb1a2bef,0x122bbdd0,0x9bdef0ce,0xf5ffce06,0x491ff3f9,0xfe021cd8,0xf80a3fe5,0x09e6f4d9,0x4ae6fbc1,0x3348fe47,0xeb402308,0xbf182a10,0xcb2048eb,0x2eccc9e8,0x01130204,0xc9513314,0x4b2d1c33,0x12da0dfc,0x10161cfb,0x2afc98d8,0xd6df2aef,0x3af0ef3b,0x04b821bf,0x1c2ef10f,0x3ef602ec,0xe7cbc345,0xe909f9ef,0xe5210bf8,0x0df8f021,0x08e90c18,0xedf9fd32,0x1d0becfc,0xce4309ef,0xd512cafc,0xdbfe20d5,0x0ea85019,0x38080714,0x19bed01a,0xfdc501fa,0xe6f40d10,0x0a1213f2,0x2716d127,0xf50100f9,0x0ce7ede8,0x0de9fef4,0xecf2eff1,0xb6d0d4a8,0xcfed1ce0,0x301eecd0,0xe50412d6,0xf1071243,0x1120eeca,0xe3eedf07,0xeff427f2,0x16f1001b,0xf5f91de4,0x20fa18ef,0x2bf6cceb,0xf5d5d30a,0xd3edeb11,0x110f18e8,0x10fd2507,0x30f50fdc,0x11cd34e5,0x37d3c39c,0x1cecf3f0,0x2c050a2c,0x0ce3f0f9,0xea0f0712,0x182c0c06,0xf1f637e8,0x00f12df6,0x25e9f605,0x08dd211b,0xfcdc111c,0xdaf33bf8,0x2dd50433,0xfce418af,0xe12de115,0xfa96f7e7,0xed09e300,0xd3aa28c6,0xd6e20754,0x34f909bf,0xc11ddefa,0x06ede84f,0xc9ebdde8,0x1ae10fd7,0xdcbdc701,0xd3e1f117,0x0d03fe08,0x161da717,0xff250d20,0xf7122f00,0xaf01d124,0xff15ea01,0xcc03c8bb,0x05d52a30,0x2220f50c,0x0938fdd2,0x19ed36d1,0xd3e71915,0xfdff2f05,0xec180709,0xe104eef8,0x30020814,0x014119fe,0x041ed923,0x09eb1010,0xdf03fff8,0xc3e800f3,0x020f2507,0xa8ee0618,0x0cdd1219,0x08a2c30e,0x1308202c,0xdb060d07,0x010802d3,0x27e7d70b,0x1017acd7,0x1417f1f3,0xeb1de325,0xebeefad6,0x0b2b0ce4,0x4307e208,0x1204011b,0x3900ec0f,0x080ee426,0x18b6112f,0xf4d8ea96,0xcb0b02eb,0x1ef424cb,0xa6faf5b5,0xdb2ef81a,0x2016e21d,0x1e0a56fc,0xeb11381a,0x160d1a10,0xf946ff11,0xb043f6f8,0xce26d1f7,0x07680f08,0xf2d7f522,0xd9df18d3,0x5acae1bc,0x312b43f5,0x2bf66d42,0xd301f3ff,0xeb02fd01,0x110034de,0xd1e01cc8,0xc410f61d,0xf3d3eefb,0x12429f03,0xf7fee072,0xf02ad820,0x3807db18,0xfb44dc9e,0x119bcf6c,0x19f9b374,0xdd4c0b48,0x27f80205,0xd92125e1,0x3770ec35,0x36e20c2b,0xdde0ad37,0x0163188f,0x36aa13ff,0xa83dab5f,0xefc51809,0x10e8cc21,0x1ff3e528,0x0f23def6,0x6fc3132d,0x011806cc,0xd82130df,0x691e20b1,0x2523fd28,0xfbbd31e9,0xef321aed,0x3f021bfd,0xc6751ca8,0x31e7160f,0xe0ffa43c,0x5be2e4f2,0xb9e7f6dd,0x050bd278,0x10fbfe09,0x07cbca1f,0xfa27042e,0xcd390bdc,0xf3f6ec32,0x1805c728,0xf3f377ef,0xfdf5cc28,0x24f28756,0xc5e6f549,0x57ebfbc2,0xef2b4609,0x0359cc88,0x0e091f2d,0x17c9e401,0xdf1d6bb3,0xf8d70e3d,0xd9f141fc,0x41dc2918,0x9ae73acc,0x4d3a702c,0xd409f604,0x21094d4d,0x26fdf23d,0xe20ce605,0xf8137914,0x090d392e,0x10bb74c6,0xe71865d4,0x126c9daa,0x1ce7aee1,0x6efa8bde,0x2f3747c6,0xd0d4bcd2,0xee0c28d4,0x2646aaab,0xd6fe8ff8,0xfbf22636,0xde32c5f3,0x25283311,0xff38e58d,0xfef02036,0x22dafc15,0xe4000d06,0x256e30fc,0x42f9cf10,0xd8c43c1f,0x720d3136,0x96bfc632,0xae0cd62c,0x0afcf410,0xa5087228,0xdeffaf14,0x212c2541,0x09efc823,0x1b08f20d,0x1efbca0f,0x1904d4ff,0x65d0e845,0xe6013f0e,0xf0df3cdb,0xe9c302e5,0x850e0d05,0x6b2c1e21,0xb3d592c3,0x0cee08d6,0x1912e4df,0xb0e65ac4,0xdebefe76,0x33fb3204,0x090c1f48,0x74f03e15,0xfed4e31b,0xe33b151a,0x080bcdac,0x319931af,0xe521f753,0x76b0ff42,0x04200fcb,0x2e46edfe,0xe9fbfce0,0x62693f92,0xdd55e8e8,0x0edcc6dd,0x23fab92e,0x3c51f5ef,0x6ed2f9e4,0xee8ecff6,0x11220517,0x3018d9d6,0x43f9d4cc,0x94e801e5,0xc8c2166e,0x4013090e,0xfa27f019,0x1602f6c5,0xec3e327b,0xe51e08be,0xf4f4f0bd,0x16db00a2,0xae14ace7,0x78a0fc1f,0xdfe10917,0xbf3cd21d,0x9a32e1f5,0xa7f3d68f,0x22e0f4b8,0x320084db,0x2afb550c,0xf7e7c8d1,0xf52226f0,0xa74100df,0xc939edfe,0x071d1151,0xeafebd32,0x10dee4ee,0x0a265398,0xced90fe6,0x079f6f15,0xdc1b1136,0xfe01f001,0x8d89f337,0xac73d2ce,0x90f224cb,0xcfecea24,0x4f1e1a58,0xf51ae634,0x155326f0,0x031295fc,0xe104d701,0xedc12a13,0x1ebd12e7,0x22121a71,0x33144912,0xc2baface,0xfc2c0f1e,0x099cb41d,0xd0ca8a68,0xebc86ac7,0x3c339b99,0x9719dcf8,0x468f0375,0xf2e75559,0xba1b1bfa,0xfad73ae9,0xbeb3d572,0x9f2d04d3,0x871cb696,0xa91afaf1,0xfd18dbcc,0x3356b4e8,0xfc53e7dc,0x2f0dd117,0x32e31a8a,0xf712dacb,0x110af016,0xec110f07,0xb9123d18,0x0703166c,0xc405d4f5,0xfe9a44e2,0x76cdec06,0x342a01ed,0xf2dbdf09,0x0d319ed7,0xd3722e20,0xa909cc02,0x16701aff,0x33d6ecff,0x532ee5c0,0xfb086a1e,0xe587edd6,0x3ae9fe28,0x2af81efb,0x2ac0dd85,0x4ffba1d1,0xe3c8d5e9,0x04ef2a7c,0xfa341103,0xdb23e7fc,0xfff0ea11,0xb3fdef76,0x0ae51bf5,0xfcb95a60,0xee6f1f19,0x6f3a488d,0xe63b68d2,0x0ab18a0b,0x1ef6a942,0x4c56f9fb,0x719b2adb,0xd1ea1cd8,0x16f828ed,0xd6e33ecb,0xb8f5c582,0x3de80c22,0xeb0de3ea,0x2e462e8b,0xd8fec326,0x24393718,0xf2ea01b8,0xe3d010eb,0x8a0f96df,0xf5f13822,0xc35b4ef4,0x268daf07,0x392a1f32,0xf1b8f905,0x3dfe17fa,0xea870cea,0x0f0ca6e4,0xdd1b2de1,0x1815ee04,0x933d24e0,0x300718fc,0x3cd4e0d7,0x9c7333a1,0x2cc4c620,0x19bb4340,0x000af50e,0xe38607cd,0xfff911e7,0x3f33e502,0x0628489f,0x5fc94a06,0x0cb4eecf,0x6f200fb3,0xde2817d8,0xfdc40f0f,0xcd0bef3c,0x88304f96,0xd9072923,0x1635faf3,0x1f5978a0,0x0f051e24,0x14ffa6dc,0xf527bb17,0x43d6eaf7,0x97e0e7fd,0xfdac0226,0x2bf9d918,0xed83f833,0x0001bac6,0xf0c5f02b,0xdf30edf4,0x1b107c03,0x1c4e2a0e,0xbf15de10,0xfd89f7d2,0x0303e2cd,0x111efa05,0x151cff44,0x4cc39e73,0xc44157cf,0xf82addaf,0x07cc26b9,0x0122bfeb,0xdadbfe07,0x3c760326,0x7515f107,0x3794b2ee,0xe11d1cc0,0xc9e4ced6,0xd10634dc,0xd10fb5e5,0xcaf2ddc9,0x553e2498,0x62ca0e3c,0x05ca4312,0xf6dbbb74,0x133b360b,0xf8fc1b2f,0x323a291b,0xf41613c2,0x613c2a06,0xfe8ee0f0,0x2516f41a,0x43171f03,0x260220a6,0xe7534553,0x0c755ff8,0xa39a0dfc,0xac53d544,0x02c201d7,0x35e71a2a,0x548f3306,0x51082bc6,0xe61519f9,0xf8e27707,0x0988c509,0x722a3d4a,0x1ad64561,0x330987f8,0xf44efeb5,0xbcfed890,0xdbe4d219,0x59450751,0xe3f90806,0x73ace318,0x0c024d25,0xd61d43de,0x3d13f4a6,0xbe77efee,0x1f06e824,0x3ae6b6f6,0xdd36faed,0x6ff7a3d2,0x04b6d60a,0x108c344c,0xfcfc0ba5,0x156beb9e,0x0cbd4224,0x3bd6f1f7,0x859616ec,0x1dcabf09,0x5418d26d,0xb0c9d5e1,0x61900331,0x2e262d39,0x241f2e03,0x0c4add8a,0xfbf92b2a,0x20c3fbf7,0xf5dce6f9,0xc15839ba,0xf5342284,0x220d9930,0xfe2b54f8,0x164dd421,0x01b9f45f,0xcce0da69,0x08d22f00,0xd0a10e6d,0xfb041ce9,0x06130c1f,0x38d72fbb,0x65eb1d1c,0xeef805f4,0xccf12d65,0x00dbd178,0xe9524a58,0xbc3c253c,0x387816d0,0x90eafadc,0x52726102,0x06f40b19,0x250540fd,0x08cefd7b,0xd71558f2,0x13c592c2,0x0507d573,0xd4fb50e1,0x06af87fd,0xf2dc0401,0x01e500fb,0x1ae0fdea,0xec901002,0xe5e8eee1,0xdfffda18,0xebf1000e,0xf8070bf8,0x07f3e5eb,0xd100f926,0xb4110d9e,0xa90c05eb,0xffbade06,0xf6b50bfc,0xb4aafe20,0xe9724dec,0xded71cc3,0xf1bff601,0xb8ce1ecd,0xaeb21726,0xea0912cf,0x65ebe627,0xc1fecdd1,0x0e0d95eb,0x1cf3f9f7,0x07e70df2,0x20f90220,0x03351b05,0xebeef4df,0x23df4eec,0x09feff04,0x07cf15e8,0x08fa17e4,0x0dfef8d8,0xf8f143ef,0xbce8daf7,0xb548e906,0xfef9e7ff,0xf5e3d9ad,0xe760f825,0xe2ded7e9,0xa957ff62,0xb10127bf,0xf1ab05ee,0x07f09626,0x81f812d5,0xe1b5819e,0xc566d958,0xf7e4cd47,0x685dad60,0x22f94ff6,0x5c08febf,0x4964525d,0xfe04ecc7,0xd0b9ac08,0x36d3a72e,0x46463264,0x17c95049,0xeee6effa,0xace6e4f4,0x57b0fb11,0x04ef51ff,0xe821d758,0xec63122f,0xe7dbdaee,0x60ac07d6,0x530627a4,0xfd5402e2,0x08ef4630,0x67f90ddf,0xa409cf02,0xe714b9f1,0xe2170700,0xfbf1fbf3,0xf30a03d3,0xfa19e102,0xeee7f508,0xd92d200e,0xf61a00be,0x0f040a0c,0xeefeeae5,0xb8fefbcf,0xa347ea1a,0xdbe106ee,0xf3615f08,0x32beece3,0x2f5617df,0xdd69ade1,0xf0041727,0x024affec,0x3f402e13,0x1d67fcb2,0xd0fef8e7,0x40f1c623,0xb00f5101,0xead2c1f9,0x1c0d0e06,0xf9ed29fa,0xf421fe29,0xf4aef009,0xe2e4f809,0x29f2e500,0x3c12feee,0x0629093e,0xf2fa05db,0x1ffdfe28,0x0bffdbea,0x02020f08,0xfbeaf6bb,0x0cf21b22,0x06fc1d1c,0xf1f40cc3,0xe01ff9f1,0x001f53d8,0xf6f310f7,0xe6ff0de7,0xf1f513f8,0x05080704,0x2f2205b6,0xc8fe98db,0x4cdfe30f,0x45e65a41,0xe2015c3f,0x07ff10d4,0xbcf3060e,0x470cef0c,0xd8032afe,0xf90dd0a7,0x9ce14cac,0x0b030c53,0x3605deab,0x26050705,0x1205f448,0x14032618,0xf7ff0118,0x091c0dca,0xf814f9dc,0x10f28ced,0x0d2213f4,0xf8000af7,0xec0d0bdd,0x0bff05f7,0x1b12e923,0xc7392e0d,0x130efff5,0xf8b7111f,0x4221073a,0xcee217c1,0x1146000d,0xcd06fced,0xdafd2cf3,0xb2034bd5,0xff249d26,0x0f591409,0x396960f8,0xfd8116df,0xdd4958da,0xba63b5ae,0xb3cb9d66,0xcfdb4091,0x6a6d4fe2,0xc5af3b79,0xcba18e62,0x6253a6da,0x2db326fb,0x58d1af55,0x3f10e3c5,0xba1e290a,0xfad80526,0xf7faf80f,0x2823005a,0x694823c6,0x0b62fd0c,0x4bfae1f7,0x650019f3,0x0f06456f,0xf94a97d2,0x01d313e3,0x2101ec46,0x2307fa07,0xf909f633,0xfbeff314,0x0902f5f1,0xebf80328,0xfee7faf4,0xfbf6c6e6,0xf7410bf4,0xe80607f4,0x12fef326,0x052708e8,0x2a29ee74,0xb8f9cf42,0xd21ced13,0x001ebf0e,0xfcf0013e,0xfbec10d4,0x9f30f7a4,0xd5fce812,0x0f0131ee,0x0701d744,0x3ad94657,0x0aee0bac,0x0801eb16,0x0905fe05,0xf1e6f5c7,0xf7fdf614,0xf900f901,0x190f0422,0xdde8faf1,0x0a3626f4,0x13f307f5,0x06010317,0x1215ed0a,0x0aef06c4,0x1e1500c8,0xcbd332e6,0x223814df,0x3a101fc7,0xdfd50023,0xa8f5bde8,0x121ae1cb,0xadf91006,0xe33800e2,0x0bfd13d3,0x13f2ebea,0xca130519,0x08080000,0xbd040f23,0xfee521d6,0xe04240d0,0xd60f00e5,0x8c031616,0xe7eeff28,0x13dad940,0xd01e00d9,0x3d45ebda,0x49150b15,0xe614dd5f,0x1036000b,0xcfe6f624,0xcdf6080f,0x0516adbd,0xfbfa00fd,0xea18f70e,0xebfe3109,0x080dedca,0xf6d000f6,0x19e0fd0c,0x0cede6f7,0x101508e7,0xe82b0022,0xefd10c1b,0xb0e20217,0xe8daca13,0xed0300f8,0xbed4911c,0xdbacd32e,0xc918dbf2,0x1a3200f5,0x16072ed4,0xd5231de0,0xffe8f80d,0xcf1c0043,0x4cafebec,0x232e33f8,0x0ceefe3a,0x970d004c,0x06ddec97,0x0931fd1d,0x34a3eb0c,0x1c0700c8,0x120636f3,0xc02663c0,0xed1be314,0xf0f700e0,0x283aff03,0xece114df,0xbe0dd727,0x0005ce0e,0xd51dfbf9,0xd0e4cc17,0x0f342d33,0x09d44338,0x0312f3d6,0xe2130636,0x081c1825,0x111c1a25,0xe3d53d2d,0x270b130b,0x11140a00,0x05fffeed,0x1c0cf6d4,0xfd44e749,0x10ef1d03,0x041408ea,0x00f9fd08,0xd51513cc,0xff0beaf8,0xedcdcf2c,0x21de2900,0x182c22d4,0x0ef2bc03,0x3117eec0,0x13001cb2,0xb6ecb5b9,0xd9d330e2,0x112027e0,0x08e2f7dd,0x111bf906,0xfe16f01e,0x24c93907,0xfd20bd1f,0x020120e8,0x0306200b,0x0910e7c3,0x1a0a22e9,0x01ecdd19,0xaa0015c5,0xeff018ca,0xed29c703,0x150019ed,0xddab2cd0,0xcb1ef1d3,0xc8481efd,0x01f7f024,0xd00be401,0x191b3211,0xd9bd181c,0x38d417e5,0x18275c3f,0xa20e1407,0x9d160b02,0xd4d91ffa,0x193ff123,0xe4e9f9da,0x191d36ad,0xf852adcd,0x9d2f05db,0xe364e9c9,0xbec90cdc,0x1247e5f8,0x10c6a10c,0xfff776e8,0xef37f6e4,0xfecdf717,0x01fbdecd,0xb3afd9c4,0x09faf319,0xf3bfef17,0xfff53f3b,0x0717efd7,0x0af00005,0x141011d3,0x00e8288d,0x0ec90af0,0xdef141f8,0x0bf6f3ff,0x00eae4f1,0x1c00f40d,0x2903fa08,0x0821cb0b,0x0029e6ce,0x1dfc16dc,0xe1f0ceec,0xd8c6e717,0x00d0b3e5,0xf1f61e15,0x2ef2abf8,0x0deae9a3,0x00be2edd,0x23010afa,0x1e12e019,0x1de905ed,0x0048fdfc,0xf0cdfedb,0xcae61406,0xce0def72,0x0016d03f,0xda070dd6,0x18ecf811,0x2611b8d1,0xff0ff843,0x0ffb6b20,0xcdb4e0a3,0xa829f811,0x00fa3d1b,0xff0cca0a,0x0a2921d1,0x35eacc98,0x00e224ae,0x1e0ed2fb,0x093ef10b,0xfbc215d7,0x00e0e9a5,0x08fff0d6,0xd924e9c5,0x25400919,0x005ad23f,0xad7023f6,0xdaf05fdd,0x3af536c2,0x00d11582,0x4b1dffc3,0x121e16f3,0x19d72fee,0xffbd101c,0x03f13719,0x0c00d93e,0x2a05cee0,0xfed412fc,0x37fae5ca,0xf2002a60,0xe1fa09e3,0xcafa89d8,0x00d51a2a,0xbf00fcff,0xf8fc0509,0x39eff92b,0xe4d5fcda,0x0400c608,0x0ee007dc,0xd944fe17,0xeb1057f1,0x01001bfd,0x01d61316,0xe4e61925,0x1b024347,0xc30024de,0xf223f32a,0xfafe0d31,0x13d12e08,0x1a00c2ed,0x23251717,0x33fff601,0xd9ed09cc,0xda001201,0x3306f9f5,0x04260007,0x0106f1d4,0x1d00e11b,0xe4d9b8fb,0xc8020a14,0x0f3cd9f3,0x0f00f80e,0x02f41a0c,0x17ba2a04,0xdc1dcfe5,0x4200eac8,0xe5d86dfc,0x00e6bf25,0xeff715ff,0x3c002535,0x20f12bc7,0x22f649fc,0xe9faef1b,0xba00afdf,0x1ff6fb25,0x2def254c,0x5262e338,0x28001fe9,0x0bdb181e,0xf4ccfe1e,0x49c1010b,0x0f00eaed,0xceebf914,0x2df8230e,0xaed8fdf2,0xee00460a,0xbca4da08,0x0ffee60d,0x11f736f3,0xf811fdcb,0x04dd34cd,0x17eaed00,0x0111fcfd,0x07fa071c,0xe9d6f703,0xebd0053d,0x0600f5cb,0xea1eca00,0xcf121221,0x0f12eace,0x1a301bfc,0x2cd8cf1b,0x66ebfff8,0xf52d1ea5,0xfb121803,0xebda09ec,0x001ff01e,0x00f80015,0x49e7df0d,0x3d091806,0x31e4de35,0x34053b0a,0xd4d31927,0xf89c1331,0xc8345c12,0x04d9e631,0xece910ec,0x220509d4,0xeb1c6bef,0x0c1d1bf5,0xfc3fe50a,0x0405c6fa,0xf6ded814,0xe906e4ef,0xb2fdf627,0xa3b20427,0xfc13deeb,0xdae5df78,0xf8f0df13,0xb3f93751,0xedfeea17,0xf4f8b749,0xe80349fd,0xf7eb1045,0xfe14deed,0xf40b234f,0xf6323ce4,0x0e150bef,0xf0eefa2d,0x032da1c4,0xe130e050,0xe8f42716,0x0f1a0e14,0x08d4f1fc,0xc51aca05,0xd923fa1d,0x30400efd,0x4420edfd,0xe4e7f7fe,0xfbfccc0e,0x0ceaef11,0xa21d16da,0x2ce7ded5,0x16f3dad4,0x0efbdc17,0xf122c016,0x06e24d12,0xcfe204bf,0xd0def20b,0xe42d09db,0x0915ffdc,0x00da11f6,0x3818e834,0xd410ed1f,0xf62f04f2,0x08d2070b,0xe8ffe8df,0xc83e05b7,0x0ee8fdd8,0xed0f0e0a,0xd723e7e8,0x07f4f7f4,0xda28fa37,0xf9f0fd0d,0xe21e5316,0xd8e804ee,0xc3defcfd,0xb3efa616,0x0edbf027,0x43a82b50,0x2a1128c7,0xd0f8071f,0x15e805ce,0x03eef7b8,0x0b01f630,0x34f22be9,0xc303d4d7,0xfdfdfdda,0xd8ead015,0xe833f4eb,0x229cfa0f,0x32d2e4e6,0xb9e7cfc1,0xc3270d44,0xdafcfec1,0x24f9b11e,0x2b0e3511,0x1beb08fb,0x22ef36fe,0x01f107d0,0x2419fe1d,0xfa040800,0x2a089908,0xd61b3bea,0x2ecda816,0x144e40eb,0xe511d11a,0x38e616d2,0xd732fddc,0xf3b1cf19,0x0bdacf2a,0x01bfe7fe,0x0fe4f422,0x0fb8c852,0x0de219ca,0xe1e3f75a,0xfeeca801,0x1a1fee74,0x536afd05,0x32bf428d,0x453d4588,0xac07e1e1,0x51cbe855,0x5626a417,0xfde6b5da,0x1cca984c,0x1f16c533,0x238b44c4,0xd3230029,0x49d80ea9,0x20fb882e,0x2d0b8d92,0x171fe42e,0xc3790dfb,0x641545a9,0x16570558,0xf8e0e670,0x3004f80d,0x3604f003,0x13a4f9b5,0xd3e20f92,0x28d905fb,0x0726f6cd,0x09e2b982,0xf770fd35,0x4ddae315,0xde9fe342,0x2913f223,0x230b1525,0x2ae6dffc,0x35dcce12,0x7ee2d76c,0x16042626,0x4fe418cc,0x21fa98e9,0xe5fde12d,0xed35f207,0x062788e2,0x48ba5da8,0x0235f31a,0x1d24f81c,0xfe70dfd2,0x1d01df1f,0xf3dbfeda,0xfe92db2f,0x1714c418,0x1e0a33fd,0x0a165ed3,0x15b0fde8,0x952d2816,0x29f68823,0x06f900cd,0x78080014,0xc2c4e6e5,0xf6f30cfa,0x0516e2ec,0xf6decb37,0x2bf6d202,0xfd95f46d,0xd5d3ce9e,0x261b3e59,0x04e12897,0x98dedfe0,0xd85a8799,0x151e240d,0xe8f2feed,0xe9faeb36,0x0d1d1a73,0x26f28d9e,0xe7ecd10c,0xdbedfedd,0x5330e662,0x5e6a0b28,0xe238fe4e,0xfd10df32,0xe2bfbd15,0x28f75c1b,0x92faf820,0xbcea01ea,0x12b049d7,0x1de6dbfd,0xe0e60cf3,0xc313df76,0xe8f61ee3,0x323e9d8d,0xd015f923,0xc21050c6,0x174d0065,0x05a9edd5,0x034aff3e,0x0b3b6854,0xf23815cb,0x112f24e0,0x02b6f7ea,0x4bd4d10d,0xd590db40,0x14ea368c,0xf333ed13,0x33db0528,0x08f5feec,0xdca20d1e,0x06e4e7ae,0xf3463644,0x78fb16f0,0x491e280f,0xf91d2e5f,0x853504f9,0x32d3b5cc,0xf603200b,0x2273173b,0x34467010,0x26611cb4,0x0d4a75da,0xd916cb25,0x3a07c022,0x5d5fa0b9,0x781ae8f9,0xf79b0c01,0xf11eefe7,0x193aa7ef,0x14f4c4ee,0xe0170c94,0x0eeb1e19,0x0bd233f3,0xedbca41b,0x1540eb21,0xd68c56b9,0xf21c8ad9,0xf63000d3,0xe3043f11,0x23370cf4,0x8d134baf,0xf226c7fa,0xce4af004,0x2a0066df,0x2325dabc,0x20cdf63a,0x90d5eed7,0x2257a129,0xf1f716b9,0xb46a09ad,0xfa9507b1,0x169cd3b2,0x1fb2fe61,0xf0ebd812,0x1feed017,0xd517d562,0x7ac0ea0e,0x0854e018,0x25ddea13,0x0722ce7a,0x100a60f5,0xed040ae5,0xfee20dea,0x02e3fe25,0x8cfc25b3,0x2a0007d5,0xfe446ded,0x113d54d1,0x1136af0e,0x9a15ffb4,0x4f142f40,0xf2e305d4,0x11ecfd00,0x36c1e6e2,0xeec463ee,0xf933a213,0xfb0ecef9,0xed11eacf,0xd123df20,0x3f2b434e,0xf31877c5,0xbbc210af,0x6908c0f5,0xf059292a,0xf32d57cc,0xe75f5217,0xdfea3fd7,0xc2b9d66c,0x94451c06,0xe2e4cff7,0xffe815f5,0xe9370cfc,0x030aee8f,0xa0e8ace7,0x8c5521af,0x479df9ef,0xa84d1dd7,0xc3d13092,0xee2f1d1e,0x40ed1b3d,0x0b006947,0xef0b1db5,0xafd82113,0xc40efbf6,0x77dd1f32,0xc1d40142,0x750bd100,0x131fdad4,0xa8f328d5,0x2835018c,0x25b81ded,0xea14b544,0xba88df29,0xb3f7b2db,0x04dfdc86,0xf803daf9,0x183deb0c,0x60e7fde2,0x99e6ecde,0x1da73fe7,0x1add5c06,0x58e4b702,0xec0aca01,0x78e2cdbe,0xe5d91003,0xd3fffd03,0xb1851669,0x2314161a,0x0d16d203,0x15b719c4,0x29befa08,0x1117f779,0xb4cc2001,0x263ca46d,0x3235ebc4,0x440e0aee,0xb1deb494,0x7310f306,0xbcc3fec8,0x12e8ff1d,0x1f0cd6d8,0x0ec8df09,0x59e4ca34,0x341aee23,0x77a023db,0x16e1ed52,0x5acdd141,0xca88133b,0xd50c0e9e,0xb8e32c14,0xa5f194ee,0x88f4c855,0x202b04c2,0x712616ef,0xafe089cb,0xd2f9b1cf,0x091f15f2,0x00526eef,0xd2001fc5,0xb7dbd631,0xc04eed18,0x15d4488c,0x3efbb3c8,0x08f1e608,0xf341034b,0x0feb282d,0x5e9c0dde,0xcd4507a5,0x66d827f2,0xfc0ddffd,0x131b0900,0xefd429c8,0x0b22ed75,0x1c13e0ed,0xfdfec519,0xfa0fb814,0x7ccdfc44,0xd4e6d5e5,0x8a21310b,0xed043136,0x46181be9,0xbeab4711,0x05f54b8d,0x1f25546a,0xdc2614d2,0x6ef1c3e1,0xe0e82209,0x08e0e730,0x283bc1d1,0x3ef8e3de,0xf9464ce8,0x085a69c6,0x490b8e18,0x130cc93a,0x24fe0285,0x2a05cf37,0x132c9ea8,0x1e1736f3,0xd4072efd,0x2279e0f4,0x14062efd,0x0efc6317,0x509f1db4,0xb9250fb1,0x03052fe9,0x148f18f4,0x1d036df4,0x4423bd06,0xeb24aaf1,0xdfe205a2,0xc84db7cc,0x477a45cb,0xd7182536,0xf6b4c88c,0xe9e4f9d8,0x331216ec,0x33521a55,0xb689a5eb,0xf4c710e7,0x9935a274,0x4f11fda1,0xe9bf20da,0xe8ee17bf,0x10da2f25,0x8638c6d9,0xaee59dac,0x49075497,0x5ae9f628,0xc6c1ef02,0x2dd9310f,0x8bfbcf14,0xb5fef4cf,0x32ba3ed7,0x26e11734,0x1b30fd11,0x7228e8ee,0x73ee1b2e,0xc6ae06fb,0xd694d19f,0xce171ac1,0x227517e6,0xfc150743,0x7dbcfadd,0xa7032221,0x26f115c7,0xb8f39fe0,0x7a07f1ba,0x2f18ac27,0xe654e70c,0x78f9bbf9,0xa0c526d5,0x2cccf93d,0x3a1fced9,0x12320dfe,0x38743328,0x1ed0eb28,0xdcc7eb0c,0xf1464c0e,0xaa0b7bd7,0xec344305,0xac5a3f96,0x2ee3d02a,0xb78bc020,0xec220cdb,0xd318cee6,0x0f3aa7b1,0x90129916,0x0706ab30,0xd1deeb38,0xb4c14ef6,0x0e4f292b,0x2e41776e,0xe533228d,0xec04b89f,0x19d9d4e9,0xdf039026,0xd5071f32,0x14d9d306,0xfd06e71d,0x34661617,0x7bdb0eda,0x06357b26,0xf8eb3ab8,0x0b90ea0b,0xbf65d656,0xfb2cf1fe,0x3079fc54,0x29e6db17,0xc1d6ebfa,0x02d8e6c9,0xe3cae0dd,0xc6f5fc45,0x1534f8ef,0x1eeefc02,0xf200dc1e,0xdc0e0fef,0xfefe251c,0x21c44c13,0xf800ea4a,0xf7ff1039,0x28f7d8c6,0xaa3ae8a4,0x97c51060,0xd00506fa,0x44431411,0x58fe3ed1,0xf7e4a7d8,0x1aad27ef,0x07f83ba1,0x69a3ee9e,0x2f0e2d0c,0x50e40634,0x249d2714,0x120fed41,0xe8d413e6,0x1bf9fec8,0x06f30f10,0x19290cd0,0xf2ffd7e8,0xeafa12ed,0x01fd1f25,0x25c79e09,0xed0931c8,0xf2ff0db5,0xe8f1173d,0x28d8da39,0x48ef19c6,0xbd0ef6f6,0xa7519e27,0xfcfb5457,0xe91a2362,0xab6925eb,0x00ff3448,0x1ca0f1ff,0x00f6d454,0x07f016bf,0x66c9e3ea,0xf6a250ba,0x473c3438,0xf75d7200,0xb0d727e9,0x94c333c5,0x62c83ce7,0x2acc3de9,0x25c61ab0,0xac38a2cc,0xb9bb4501,0x21fba539,0xee30bffd,0x34e1ddcc,0x48f8faca,0x5c0aefe8,0xa9bc509f,0xfff85ec6,0xed1f30b5,0xa0d52cf7,0x01fd3b4d,0x11b60df4,0xdae8db99,0x0def15d8,0xd9cedf25,0x0022df0e,0xf4ed16f8,0xdafefbd4,0x07f2dd13,0xed300b49,0xf2fcec29,0xda271716,0x010ecf20,0xfad0a920,0xc2103a2e,0xf4fb1ac9,0xfbee0b34,0xf531d837,0xdffafe2b,0x2b0426fe,0x2ea4ca42,0xfbfb4529,0xf0f4da0c,0xa237343f,0x053bcab3,0x9bb70091,0x30342a00,0x3f6a1409,0xc0c53efc,0x04bfe7ca,0xf1e7d5ff,0x2ffdf829,0x04fb1ffc,0xf1ec08fc,0xf0fdeee2,0xd4ef1417,0xff0fd513,0xe6b22614,0x1710e2bd,0xf7fe193f,0xe5e4eeae,0xff00f203,0xe9e1e4f6,0xfff4fe00,0x19e5efed,0x0c062403,0xb6f80c11,0x12f60106,0x5815163c,0x222ef8fe,0x2dfdf3fd,0x0b07ff1a,0x27d10323,0x081f651b,0xadf4d2aa,0x372b4f38,0xfee207cc,0xf0270ae6,0x28eaaf1f,0x4419e802,0x064b0009,0x05bfd10e,0xd908b8fa,0x50e50212,0xeeea0f5c,0x00f7fbf4,0xf22ae4f8,0xf420070d,0x0adbd8e2,0x280df802,0x3ff80114,0x182bfbed,0xfc26bf42,0xd6ec07fb,0xeff506fd,0xee0dfd04,0xe1441f25,0xb51a3d4a,0xc6c1e2c5,0x06b6c5f9,0xd814d4f6,0xd4f902e5,0xe8d8d13b,0xf7edeb5d,0x03fe483b,0x0352ce13,0xdf154721,0x6cfbfb15,0x4de02ce7,0xb0680843,0xefeb71b9,0xae08f652,0x3a94ed69,0x4e4ec8b5,0x37f6dd53,0x94c2b602,0x58cd23a1,0x20d5cf77,0xba4ed1ba,0xe8392d5b,0x070444a6,0xab25a0b2,0x545fdd50,0x104b58f8,0xde0ad8fc,0xc502f1d3,0xb648514a,0xf815ecba,0x03fdae39,0xf7e65c18,0x2adbd02a,0xb7f0fa38,0xbaf045e0,0xfefa040e,0x04eef2f9,0xedfcfe04,0xfd2220ee,0x06f2fee3,0x2fe5f3f0,0x0611f90e,0xfbf53310,0xc721f700,0xeafc20ff,0x0907fc0f,0x1d2f3bf2,0x2713b4c2,0x46ee0958,0x28afa657,0x154b5f11,0x1869fce1,0x020a5315,0x24f00700,0xef0b0cee,0x10f92025,0x18d74ef6,0x99e2f21d,0xf30020f9,0x04ff05c3,0x2d0ff03b,0xf3f7eb08,0x082820f0,0xf30017dd,0xdc211202,0x06f7ffed,0x4cf2e615,0x27f61b08,0x2cedfd05,0x1307fc14,0xdfcfedfa,0xeefe4ae7,0x050e1d13,0x2716f333,0x023702ed,0x0f4ddf24,0xcffd0fe4,0xd9ed2bed,0x013b1ae5,0x49ca120b,0xdbf0d4d6,0x1cd7c8c2,0x2c21d528,0xf8e7c6f5,0x13e330ce,0xe919e3d1,0x103914f3,0xf4bd31c5,0x19101907,0xe0fff20f,0xf7e0fa0f,0x211a03fd,0x01d8cb04,0xec2220eb,0x12d74d34,0xf552e004,0xed0502ff,0x19e70ffc,0x2cce141a,0x069b211c,0x160f4b04,0xe9e402f3,0xf9cb2500,0x15baa4fc,0xf9f214fc,0x1366e301,0xe1031ed0,0xed77ef1b,0x0fe6f3ea,0xd7f62502,0x1ff7eb10,0x0ad512b7,0xe3e902b4,0x133124d8,0x260701f3,0x0cb8c6af,0x440a2555,0x01cb2f60,0x1b0b27ec,0x12f5f1fd,0xb85619b1,0x09e7eb99,0x1f21f14a,0xd1d217a8,0x0d1ffd13,0xfa1c3b2a,0x41e7f105,0x2b4ef008,0xc205edf8,0xb5e7cefc,0x35e03303,0x1bd9e3e9,0xced827eb,0x0ffe01d9,0x1c40d7e9,0x1c2405e6,0x2c030811,0x301207ec,0x0bf1e411,0x01420439,0x0463d521,0xad04de0f,0x13342fed,0x0afdbe24,0xdce223ee,0x0820e213,0x123e3951,0x63ff0e02,0xe73a1dc5,0x12decfe2,0xe8371bfb,0xf2e5f1fd,0x12db04f6,0xe8182e20,0x41dcd1f8,0xd908ba39,0xc4def629,0x1954f61b,0x11def516,0x291408f0,0x4a1bffdc,0x0cd7ebee,0x00e60ae8,0xfef9f118,0xe6420616,0x12e8dd35,0x3cdb01d1,0xe21005cf,0x29600d2e,0x23f9dd0b,0xf9e42e06,0x00fe11ea,0x23e2f4d4,0x0a0d0c01,0xf60b05d9,0xf3b524e9,0x1b449bf1,0x04bdded1,0x20f31c29,0x400245d3,0xe3152609,0x2afef7e7,0xe519fa20,0xe41aa8ef,0xcafab12e,0x330ada3e,0xfeddfaf6,0xe007f9fe,0xd8edfc11,0x050a3a1d,0xf4b7b92b,0xeb4c0e4e,0x2ef72028,0xc6ddbf4e,0x421534c5,0xe7c0ee05,0x0edd1cd0,0xc4e0f60e,0x0b202cf4,0x3302ddc6,0x0e29cbff,0x1dec98fe,0x3a2220ff,0xc143042f,0xd9e20d07,0x15f225f7,0xd206de01,0x06deec1f,0xda2b9028,0xa816f92d,0xcd022bf4,0xfd28132b,0x1936f5f9,0xf359e8e8,0xcab2141c,0x2be8f60c,0x0b14ef20,0xf3fd0c02,0x371b12f7,0x6609d217,0xf324ea12,0x3141da02,0xf2b10417,0xfedc20e8,0x45f6e0e4,0x151d20f8,0xe11d051b,0x142a0f08,0x1d19eae4,0xeef106f4,0x1f181e11,0x0e090b30,0xa9e442e0,0xbc36ffd9,0xf934f417,0xf7d72b01,0x3cf31cfa,0xf01611f5,0xeb02f809,0xf52adb4d,0xf7f62feb,0xf9231bd4,0x2c0cebc7,0xf00797cd,0x023d92cc,0x01072ccc,0x2f2635cd,0x19031df8,0x2f2a984e,0x0df0d93c,0x10033d3f,0x2e929c1d,0xe2112922,0xc70ed32f,0x2fe200c8,0x1edfda0a,0x03fbb116,0xd917de70,0xb73a3604,0x16f51f27,0x7bd9431c,0xfb1ef300,0xfae20716,0xcbc9142c,0x202d25f7,0x0c1a1b15,0xfa3de0ff,0xe225c5fb,0xd6435db5,0x174915fb,0x2705f3dc,0x2a241933,0x13cf00f0,0x1a2533f7,0x18db0f25,0x01242208,0xd4fdf0f9,0xff2bf2f5,0xf9b6f21b,0xee1020f7,0x2ff18911,0xeabae60f,0xbfbd483f,0x183105e7,0xed2bacd6,0x1cf91e0f,0x4ed4f3ff,0xc6e70f10,0xfee79df0,0xfede2047,0xcde207b2,0x0212411e,0xeaf28834,0x239023d7,0xecd5ddfc,0x1df50aa5,0xffed20f2,0xdd22deb1,0x2b00db42,0xcd1c0feb,0xfee00de8,0xfe070627,0xe2fb1023,0x05011413,0x3502bb09,0x99e4dd1b,0xc0fe4113,0xc9d101c7,0x131e0925,0x1efcee0a,0xa4330fba,0x050f12c6,0x1c1b4d25,0x2b0ffcd7,0x0dfa0709,0xd21bc2cc,0x092a3b02,0xc0e5beec,0xec1457e7,0xf9e5c5fa,0xdbccfff5,0x182f3a2f,0x2be101e3,0x1b241d1d,0x40ec1b3d,0xe212cf22,0xdde1eeee,0xf3eed822,0x03051c02,0xd7cccc2f,0x05140afb,0xe04dd1d3,0xcff5b4d9,0xf93a49da,0xced95513,0x0abbf8ea,0x1de80514,0x2930e630,0xc0f1d522,0x1a240abf,0x06480d0a,0xfbe90603,0x09e61124,0x13062816,0x1d13332c,0x0bc5fcee,0x3536251b,0x14dfe50b,0xdf251c16,0x061c173b,0xcae81900,0xd4e905f9,0x0e01dcd9,0xe0050d05,0xffddf8e6,0x4d2447ea,0x08e22000,0x230ccef1,0x1ce60a12,0x223adbce,0xdd3df9c5,0x00deca17,0x0dd32645,0xc7f6f526,0xf3e70516,0xe008fde3,0x0e05d9f7,0xf72e252a,0xfbdffa32,0xaee05e15,0x10ee0aff,0xe10a1acb,0xd0140ec2,0x06f4d6ea,0x0741f5ae,0x15c8dfd7,0x41f0020f,0xb4cfdf11,0x1f07fa1d,0xdcff2438,0x20e0e811,0xfd030bab,0x30392823,0xedd6f2a2,0x512095af,0x0640d4d2,0xc4b80419,0x48e446dc,0x35472adb,0x23d02a17,0x1bc3db0c,0x0e200833,0x0c04fce0,0x000c10d2,0x223cea20,0xff03e201,0xc4153234,0xc5e6d9fa,0xe6e504ed,0x1d06e405,0x0cfd14f4,0xe50409c7,0x17bdcb00,0xd6fee64c,0x062ccc15,0x09f10dc3,0xe1d3beae,0xf0ed3040,0x3311d4ff,0x26fb351e,0x220b1c40,0x290de7c2,0xf0e80c14,0xd90ea7f0,0x4ee1f2fa,0x18d1e518,0x021cf8c6,0x13282306,0xffef0136,0x17134c1a,0x38a01b38,0xfcec0413,0xd8fa0c09,0x02ff130a,0xfe410d41,0xe8d1eaf1,0xed03f9e1,0x04d7e209,0xe8f811d8,0xf51ef32a,0xd0022e19,0xb7d51217,0x02f7d404,0xf6b330de,0xe6d6d819,0xe9330aed,0x021f06e0,0xe2f8f6c7,0xdb55ce1f,0x21153f05,0x1d011f03,0x3d35fb01,0x119ffd2c,0xb81d0cfc,0xdef9e7f6,0x04c7b4f6,0x0e250807,0x1bedeaf8,0xc02b5008,0xd2ff55d9,0xcce3ea50,0xd1cb27c9,0x3c41bf0d,0x390ed708,0x07eef3ed,0x48fdde10,0x7b4002cc,0xf81def22,0xfe73f6f0,0xd93ef7ad,0xedc0d8e0,0xefc9e973,0x1ef737f3,0xc1fdcf17,0x31fcbb8d,0x24fec606,0x0b79fc00,0xd103d424,0xeeb8ee84,0xfd11f8f7,0x221febf2,0x0f7edc28,0x0ed6db0e,0x102ec73e,0xdd2051e4,0x3d88e8af,0x990db403,0x4fe3e05b,0xba117224,0xdb115352,0xa4f0f7b3,0x02ed2eef,0x2e8a0704,0xf626d90c,0xef0d2fe3,0x20aa2ba7,0x2dfddd73,0xff0f0b7d,0x280ad010,0xc4650e31,0xe652e847,0x1909c029,0x350fd333,0x0c23dc06,0x76ed0128,0x62f7d8f7,0xf9180689,0xe3ea04f5,0x0de52fed,0x52f7d5f7,0xed87f927,0xee0eefdf,0xff5ddefd,0x073118dc,0x08fb02e0,0x77f31dc2,0x0e0c1920,0x1ed50b10,0x041729eb,0xfaa7f7e2,0x18fa862d,0x1bebf522,0x628854c0,0x6228211f,0xd2c304ca,0x7707ef18,0xf4d41edb,0x03fb0d23,0x1816d5ec,0x60fce9da,0xba0a6084,0x2e14e338,0x4942b3c8,0x7b6e9ae8,0x2b27f317,0x20d0b3f0,0xce08a22d,0x1a302da9,0xdc1243dc,0x23f1ef14,0x7d39a5c0,0x1101bd2f,0x2515fc34,0xfc25e414,0x7ef9e41a,0xf9f9de0b,0x3fdcc8fe,0xa8822745,0x06f4afe3,0x31e0f2a5,0xa0d8b5d0,0x7498ed46,0x224df502,0xe4f8b960,0x1de64c2b,0x419000e1,0x251177f6,0x3c8bd441,0x00f7342b,0xe423936b,0xcb32ebe9,0x75f8fd05,0xc0041eeb,0x38f40342,0x0f02e2e3,0x0579c8c5,0x039514e7,0xcadfad5e,0x29dcf06e,0x406edcf5,0xb4a55512,0x129eb041,0x0dd2f371,0x1fe8f731,0x9d335c16,0x52cbcc79,0x4344c6e8,0x25edd4a0,0xaeebdcc7,0x79bbe53e,0x0c25cce1,0x166cd212,0x271b2ef7,0x38cc33d3,0x09fce07a,0x0c3521d1,0xebeec7f6,0xdf3ed061,0xe7d571c9,0xf1edf027,0xf3fa1017,0x8b139b7c,0x081fe4ee,0xf120ecf8,0x1bf1fbe9,0xbbfedd1c,0x0c22e876,0x17230cbf,0xec2973ef,0x0d0b0a3d,0x6a1cc0bd,0xea55e521,0xda050716,0x246af03e,0xfc287ac5,0x7a361d5c,0xc8b6c9c6,0x1cecd1ee,0x213cafdd,0x5a0800e4,0xffe8880e,0x2d210f0a,0xad09cef4,0xe97de91b,0x32d9a808,0x0995274a,0x292b48f2,0x313c1224,0x01870703,0xe13ec91d,0x0d34e906,0x31cd23b5,0x57d3fb06,0x74f1334b,0xe11a0b12,0xfc34edfc,0x2617ffe0,0x22f721c4,0x1b45e87b,0xe952232f,0xda143ae1,0xdddff80a,0x8e7918fe,0x0a70daa7,0x0c9239d7,0x9af68771,0x0bebe37d,0x71400143,0xf4391557,0x0deff01a,0xd0daec2d,0x79fcce09,0xaef11197,0x32f5d727,0x3232bfcf,0xf92b0c48,0x7bdcfafe,0xdebce6e5,0xf6fcc23e,0x052fa971,0x4c0fe313,0xe583d859,0xb9d3a2be,0xce15bad7,0xd5040983,0x270ff837,0x1915cc3e,0x0a1ccde0,0xfa40ee0a,0x2bf67bf7,0x2759e5ec,0x270add78,0x42f20312,0x63e31d58,0xe51cbac1,0x1633fee1,0xd8eb27d7,0x779d9efe,0x17e6c618,0x0529f6a0,0xf801fedb,0x12f6e0f2,0x2d07c783,0x9ff9df5e,0x0decd084,0x2b00c2ff,0x2460f004,0x5775e93f,0xf9075c64,0xfb0a353c,0xdeafad79,0xf3f0fc25,0x21ea15fe,0x6db3e6ba,0xeabcff86,0x255fe814,0x17ceb4fa,0x0416b978,0xda1a4ad0,0xf7dbf503,0x1c38f215,0xfc0e76bf,0x1247f0d6,0xdfe31a22,0x6afbcd0d,0x21c1cd27,0x127d1ce5,0x89fb472d,0x87c5d147,0x1bfc11fd,0x09d6f412,0x17172818,0xd22b24ea,0x717cd6cf,0xfa2612ed,0xbecbd99b,0x0bf5f7cc,0x43d6dbf7,0x1e0ed087,0xc1082f35,0xeaef028f,0x02dd0c06,0x610521df,0x7b25376e,0xa8cebddf,0xedb6ecb5,0x2bee19f2,0x0e52d6d2,0x0ad47c01,0x4e8ad4e6,0x3eee0822,0xf4cb01f1,0x19e1d913,0x860ef05c,0xf2faecb3,0xebfb0377,0x0f032927,0xf11d3324,0x0c1417e5,0xff410ee7,0x23e3939e,0x5af08ae2,0xe432b1fb,0xf9cae011,0xb9090aef,0xfe18151b,0x0d02ea83,0x01f27805,0x5b09073c,0xfce6c8d4,0x222a31f4,0xb2d23dbd,0xb82a7325,0x4f402498,0xf11812fc,0x951f23e4,0x02eff679,0x3513e21e,0xf120910a,0x6724fe72,0x19dce318,0xf7ef08c2,0xe7fdfdf4,0x69415e30,0x2877e841,0x091a122a,0xe6e7bee0,0x680c3a06,0xf0ed36ee,0x03131714,0x4a1fd6af,0x41162e2d,0xff1edf76,0x28d5eafa,0xddfdfcfc,0x1a79f91d,0x20d6ecf8,0x153ae91a,0xe60022db,0xe0008f57,0xda67cd10,0xe6eb84d3,0xc42800d5,0x0a399ff5,0xb2bdbead,0x24cd8917,0xeb16ce35,0xe5092fa5,0xfe324bba,0x3276aca1,0x4332d5ab,0x02aaedff,0xef54ef02,0x04026eb9,0xfc088b10,0x55fe2304,0x0ee086ca,0x4845071f,0xaef699d8,0x9faded85,0xfe515115,0xfef33542,0xf3e65116,0x901c8a74,0xf3c92dde,0x51f0f320,0xe0d3bfc5,0xf0831925,0x2c32e7e6,0xedc1f8cd,0x052d8b20,0x3974c116,0xa50cd5a9,0x7aa1ae0f,0x20398a11,0xeb411524,0xd71360df,0xbfde0215,0x937eebf8,0xb0dd4c29,0x76913db3,0xce3b47e9,0x2ada14f9,0x971859fc,0xd7923133,0x23141c0c,0x33f5ab15,0x13022628,0xc6e7da6f,0x15f9f6ef,0xeb11d8fc,0xf5833b39,0xd05b29cc,0x2442aea3,0x0e1ba101,0xd7fa8bf8,0x1e181527,0x1df2c7f3,0xc70ef4fb,0xbf2c2a10,0x107ae9c5,0x29f80225,0x00b300fc,0x3036292a,0x37d86efe,0xb41b8748,0x21f3132d,0x137e0d44,0x0c333918,0x645bf4a2,0x1350200c,0x29e2cc19,0x2204cd30,0x211bebff,0x7ac1ec14,0x69e80d7b,0xe119c5ab,0x59af44cc,0xbd34c89c,0x2abfca2b,0xe4de15e1,0x221ddbd4,0xdd1529d1,0x1bd31dc3,0xbf28d71e,0x2036d42d,0x22cde6c8,0xd82431e1,0xec382b29,0xbd12df32,0x2e602f1a,0x35c6a53c,0xd1c725c8,0x3235bfbd,0xd51f3bc8,0x3ed73bdc,0x9440cb36,0x30ed0152,0x37aad4bc,0xe0393ac3,0x0c694042,0xac2cc14b,0x31625dec,0x17a4c72d,0xe2db19e1,0x2c20e3d3,0xd6162fcc,0x29d52235,0xc126d124,0x27b5292b,0x23cfe6bd,0x24222fdb,0xcd3d282c,0xad0cdd3b,0x364c35e2,0x5096a949,0x47c12bca,0x4636bdb9,0xe42e45c6,0x31b82fd4,0x0245c72c,0x3e5cbafd,0x3b0009a6,0xd74148b6,0x020b3841,0xaf20c93e,0x51274c31,0x68be8d6f,0x5fa54aa7,0x755a948e,0xcc4c72b8,0x6eb560d4,0x056eb84d,0x6c071efc,0x66050fab,0xf56f61a7,0x2a14605d,0xbb68986a,0x6a1572f3,0x5392ab4b,0x4cc130c6,0x4836c8b3,0xe52f4abf,0x37b8355c,0x0c3dc233,0x44a860f7,0x400c049d,0x4b3444bd,0xef023447,0xa40ebe4f,0x53f850e8,0x41bacb2c,0xdee31ede,0x3022d9d4,0x371c19d2,0x24be13d7,0x4626dd1b,0x2b37e1db,0x1b1f30bf,0xe53535bc,0xd5ce1f30,0xbe1add15,0x39e2131a,0x47b9ba3d,0xacd62fcd,0x4931b6b7,0x60262fb3,0x3db11bde,0x6e3dce35,0x390c16c4,0x343e44b2,0xf8443e90,0xf6a33249,0xb443b72b,0x48b917f5,0x3ab4c32a,0xdeef22df,0x3222d9cf,0x371d1cd0,0x1cc01036,0x4724d820,0x2cc330d1,0x202c2dc0,0x2d2136c2,0xb3c91a37,0xb813d51c,0x38bd18ed,0x24c41328,0xc94129ec,0xca38c42c,0xe920271c,0x312cdc34,0x2f30c9ea,0x122eb439,0x31d51d25,0xde2f02be,0xd12624e6,0x34d324d0,0xab271cd4,0x3eb92945,0xbe5c39d3,0xb854b53d,0xcf2d4c28,0x442ec748,0x5844ecd6,0x2c38c357,0x4abb4431,0xbb3644ab,0xcd193dde,0x418f3daf,0xcdfc36cf,0x29bf152d,0xc33d26e6,0xc433c228,0xe81f3b19,0x3421dc31,0x31322de9,0x192cb83c,0x35da2321,0xd53048b8,0xd63520e4,0x2fa228c0,0x40d227cf,0x34a03549,0xa7393fe1,0xbb4aa942,0xda303d34,0x3f49cc47,0xf93c9cda,0x384ab83c,0x45c0f738,0xc135b3aa,0xc73833f6,0x46a340ac,0xa84a36af,0x62a35d6e,0xb75c65ba,0xa16e965b,0xaf4f5e4f,0x64709d67,0xf87302ad,0x616ab279,0x64a9f861,0x944908b6,0xab3872e4,0x75bd6e9b,0xd1036097,0x388d304d,0xa03844de,0xad50a144,0xd32d4a38,0x4546c746,0xf84651d8,0x3c51bd4c,0x4ac4f63d,0xb13737a7,0xcc353cf3,0x4b9641b0,0x56b044af,0x0fc22430,0xc80d27eb,0xd62dd02d,0xf1171429,0x281cdb35,0xe32cc9eb,0x262be01d,0x27e0e722,0xd524b3bd,0xe02b1e2c,0x32bf21a8,0xc0291fd7,0x24973e4f,0xb91644dc,0xb650c138,0xde1e2848,0x3a2aca52,0xcb3d1eda,0x3d4cd223,0x41d6d131,0xab2ebeb6,0xca4a454d,0x409339a5,0x0c0a3fae,0x10b42433,0xc0072ee4,0xcc38cd2b,0xef19102e,0x2b1bdb35,0xe03038e8,0x2c39db19,0x2ae4e421,0xc92afebc,0xe3382c2d,0x30b41e99,0x3fd928c7,0x17f4f91d,0x0efacdbf,0xf7fc0627,0xf442c2ec,0xf9d7ee13,0xfefbe8d5,0xfab212f5,0xfaefdb0f,0xf5ea3e2a,0xf8fdfb0a,0x2deaea09,0xdf3125ef,0x0bcfee08,0x06e5c02d,0xd8f94cd7,0xf0efe4d0,0xd2071ee6,0x5dd9ee08,0xdbf3ee2b,0x08df06f7,0x38e3f9b6,0xefe50a03,0xd6cc0e03,0x22fd2710,0x0eed1829,0xdaf6f83a,0x0cecfe3f,0xfbdd2821,0xfcdeff36,0xf31d2804,0x122e20bc,0xf2fb101b,0x040ee6f2,0xfc1042e5,0xf6e22f2a,0xde26fc00,0xd03cfe0d,0xf34e3e00,0x0d15e40e,0x16d80f16,0xfcf4e206,0xf5f3fdfc,0x2f1232d9,0x13fcdffe,0x0f06d002,0xf30acaec,0xe4ecc019,0xefd01907,0xe6fe1b0f,0x3ee2faf8,0xe1252851,0x294a03c8,0xe0fc222d,0x00ded501,0x1af707e0,0x29211200,0xc224e139,0xf1d4f60c,0xec0df90e,0x32e5fbe8,0xae431fd6,0xde05fbf0,0xbfc81e10,0xd60adaf8,0x22311ce4,0x21fa2fd3,0xa71b42e8,0x08e0f536,0x09bbe2ff,0xedfd191a,0xff01fef1,0xec19ef10,0x1aeaec21,0x18f8e12e,0x32fff425,0x47f220f0,0xbc0cfa12,0xe7e7e6c2,0xedebc628,0x2324f7fb,0x370b2320,0xcc1735df,0xcdd8f8f2,0x00f44220,0xe32de502,0xf9211639,0xeb0a3cd6,0x0e3ec61e,0x061549c8,0xe7122158,0x150615ea,0xf7ece414,0xfdfc0d15,0xfb01e7f5,0x0c08101a,0xeff1e4d5,0xe31bfaf9,0xef16090b,0x0f17e910,0xe9e4f1fc,0x1bdef92b,0x05e93404,0xfe1103f7,0x0416f51a,0xdbd0c601,0x13dad201,0x1b1b5c07,0xdf00f6ea,0xf810ddf0,0xfae9f322,0xfee9b9f0,0xfa12df02,0xeac60b15,0x3a300bf8,0x42f2e9f5,0x20143000,0xffeaebf2,0xccf1d8be,0x54fae0cd,0x16e5f60c,0x30fbd9ec,0x02b3224a,0xfd4b0bd9,0x4afe142c,0xb8082bfb,0xf92fd9e9,0x5af01221,0x3af2d002,0xe619cd15,0xfb29110a,0xe80119f5,0xc9f8f6c9,0x0d1d2413,0x06f31f07,0xf9fb0dfe,0xf502feff,0x04faf901,0x01230b18,0x31f1e6c1,0xf72b150d,0x121d15d6,0x0b09e71b,0x140ad634,0x0df82004,0xfbd105af,0x394a2c11,0xc42ee925,0x0be7f80a,0xf023fae7,0x01d6d0d9,0xe95bb5c3,0x22cf41f3,0x20d8d9d0,0xfa03f52a,0xf31404ee,0x1e1819da,0x1f0007ed,0x0f00eeea,0xec2cf1e7,0x16081a1c,0xeefee111,0xfaf71c36,0x0b11f6e3,0x1900f6f3,0xd6fb14e3,0x1efe00dd,0x0229ee0d,0xeef01710,0x08f122cc,0x2de81004,0x3cf6f511,0xfde6f201,0x1edcf71b,0x001053db,0x35e8d500,0xd3e1fae9,0x0b2d1af4,0x2fe3f310,0xe9070b46,0x12afc80c,0xf60f0b0e,0xe203e426,0xfa141bf1,0xe2e7daf6,0x101006f2,0x0edf0b4c,0x285234df,0x0afdf3e9,0x0b0be707,0x05f1f125,0xe2fad6bd,0xd7f4ef01,0xfcfc0711,0xbbad222a,0x07df1c1b,0xd8f9f1e2,0x131d1414,0xdf20f4e9,0xfcb4ea0e,0x2ad51011,0xcef7de03,0x25c5d1db,0xb4fed8d4,0x00f5fffb,0xf9b1f5e8,0x08fed6e1,0x22ec0000,0xa8be14fd,0x04e10b1b,0xe71d2d13,0xc11af5dc,0xdc02eb16,0x0e10e6f7,0x140b34e2,0xd8171f0e,0x49c61009,0xe9e136f1,0x1cfbf7fa,0x09eeed0d,0xd9f3dfc7,0xecda010e,0x08f9e815,0x2de0ff14,0xfd0c0f11,0xe3f8ef13,0xfded14fc,0x00f80b31,0xe3edf9f6,0x0010daf6,0x07170854,0xe7060b12,0x11bcc202,0xe50b1cf3,0x0306eae3,0xfc1ff421,0x00f305dd,0x2509cd29,0xebbfc9e3,0x12d9f10c,0xf01423fb,0x11cf2614,0x171f0e06,0xc213bdf9,0xf6f7fbd7,0xcff5f6f0,0xddcc34e4,0x08e3db14,0xc5f3fae7,0xf81fd2c4,0x07f7d707,0xe0e72518,0x241415b5,0xe7f407e6,0xe908f62e,0x03e80b08,0xf0100d00,0xdcfa0c13,0x0617e50f,0x42f632ff,0x3b0f2518,0x02040f07,0x27f704f7,0x24f11613,0x22e8ec1e,0xd712fe25,0x3d0006d9,0x2b280ad1,0xcabd2efe,0xfd42272f,0xd935ef01,0xd4dee40b,0x1d2918ee,0x31ec3431,0xf5ecec12,0xe52003ea,0xec0df3b9,0xf51539fe,0x17272433,0x17ef19f7,0xe3b024f4,0xe91dfae7,0xfc31040f,0xd2141bfc,0xe317f739,0xff0be8e2,0x09ab18fa,0xe706e81d,0x0bf905f0,0xfdff1509,0x13f32422,0x0d0737a7,0x22f0e1ec,0x0bc70502,0xff3a03c0,0xf6ead923,0x03ccfaf9,0xf9ebb8e3,0xf736d8f5,0xebedea0c,0xf7f5f4c7,0x17f7fcdf,0x13ed05f3,0x0ee7f9d7,0xf43c2d19,0x00ff2137,0xe4de09e0,0x110fe9f6,0xf3f51feb,0xe6f21420,0xf20cfb21,0xf7c21e06,0x1b30bbc6,0xe80af724,0xcecc2c19,0x07d3ef30,0x17c0f1d1,0x040308fe,0xf8f004da,0x042cf92f,0xf80df921,0x130410df,0xe5f205d7,0xf7f9fc0a,0xdf101bea,0x001305eb,0x24ff1f16,0xea0410ed,0x0df424ff,0xfdeef906,0xcbec1001,0xf93250db,0xe5cd48f4,0x1deefffd,0x01c65cd7,0x15f9c4f2,0xf4cbe40c,0xec27e2dc,0xd40d4229,0x56fae0bb,0xe7fde135,0x2a24f01c,0xf3dd46fc,0x06030aec,0x17541bec,0xfc0914d3,0xf4280423,0xf3e6fe1a,0xe225aa03,0x0400fffe,0x16052606,0xee1be907,0x2039fae0,0xdf02c4f8,0x00152f06,0x000d3afb,0x0ff206e2,0xf3ddda26,0xe41b18ec,0xdfe913e0,0x23f5f3ed,0x04fafaff,0x0ac610ee,0xe403f4e0,0xca2ce2ff,0xf0ddf72e,0x07c5deea,0x02f9ff04,0x0331f224,0x16040012,0xe50110d1,0x04e0f32b,0x224e42f6,0xe1f7f1ed,0xd9f7dd4b,0x17fa16e9,0x1320f2f2,0x13c8f8c3,0xccd2fdf0,0x550d241f,0x0ee90dd8,0x12fc0df7,0x21080502,0x35fbf7ec,0xe426fdba,0xfc0b0511,0xd6121a05,0x2716000f,0x3526ef03,0xfa1827e0,0x08ebd82d,0xe4e6fdfe,0xfe040ffa,0x0015f800,0xe021bd3c,0xf215150e,0xef0631e0,0x48d3fdc8,0xf1effe08,0xee110de6,0x1dcbd700,0x06fe2b00,0xd80f0dfa,0xe4101bfc,0x0b2b2f38,0xeaf2f40b,0xff181c05,0x211ee6c9,0xe4eaa8e3,0xfb0a1a0a,0x06f8e718,0x18072ffc,0x0ff0032b,0xf1e60d02,0xfefd2ff4,0xb10714fc,0x29c60804,0xf404ffed,0xfcf2e0ef,0x4edc0a43,0x2de81e0f,0xe3290df2,0xe7f71c33,0x0cf630dc,0xfb0913d7,0x07070af5,0x1efd1413,0x16ecf222,0xf8aff3fd,0xfddbdd26,0xeede0509,0xb20fc2d2,0x1048ff0f,0x2511f10e,0xeb21ff35,0xf919261b,0x02f0defd,0xffea1311,0xf61c1310,0x0e04fbf5,0x0d0301f8,0x15180f1b,0xfbf9e1d7,0xf84a1824,0x12f3e80b,0xf8f00512,0x2b021bff,0x150121e1,0x0ff4ebe3,0xece604ef,0xfff31df8,0xf71ebbd4,0x1446d205,0x2e1fe0e5,0x023ef9ef,0xfe0df31a,0xe3f90818,0xd8b00c0e,0xcdd8f925,0xb20212e0,0xc6efece2,0x22c61b0b,0xf111afe9,0xf02cf7da,0x29e6ecbb,0x2715c023,0x1f041905,0x02da13f7,0x4df8ff15,0x0f45cc03,0xcafa32f1,0xfbcb090b,0xfc0fe22c,0xe4130108,0x15ed0cf3,0x2107d8f8,0xe3f6ff1e,0xf8ebe6f5,0xfa0ddefe,0x0bfb08da,0xece10ad8,0xec20e7f3,0xd412e41b,0x0d2e2cd3,0x16ef10f6,0x1806effa,0xe34bac4e,0x01d2fb06,0x0811fbc0,0x35ef2326,0xfa0401cb,0x3cfb3914,0xf945e1f8,0x07f91417,0xdb07cb29,0x362423f8,0xe723dce6,0xf0fae8fe,0xf101160c,0x1c0710fb,0x31e91717,0xfc16f2d9,0xef0ff9fd,0xf9d4e6ef,0x0724f2fc,0xdaffed00,0xf2150d0a,0x0aff14f5,0xe928f00a,0xad21fdec,0x0ffe03f6,0xdf0610e6,0x13132c10,0x271b15ef,0xb2e2e002,0x090f11fa,0x0cc2f7f7,0x0ffad7e9,0x02f2cdf9,0x12fa2522,0xfc0733ea,0xf9f52b13,0xf507b31a,0xfeebf3e4,0x00fbf9f6,0x13f425fd,0xfd2d03f2,0xf91e11df,0xdffdeb19,0xc307f23a,0xf4faf1fe,0x18bd19f8,0x03df2a0e,0xf0ffdae2,0xcbf8fc06,0x330c23f2,0x0b31fe0e,0xede8ef25,0x08fff4f4,0xe5dcf2e8,0xd8faf4f6,0xe713ea1e,0x02ef0c08,0x16d41805,0x4015cce8,0x37f4db20,0x0c0f15ff,0x04fad4fb,0x0017e013,0xda49f227,0xe7cf2f24,0xe1c339d6,0xbd081ff9,0x141b2800,0xf510ed16,0x02ef2123,0xffed0b47,0xd8b5f101,0xe9d91eec,0xe8f8fed0,0xfe07f60e,0xf8280600,0xe503efe1,0x2d0d0be7,0x2f2aee08,0x00fdd902,0x5de3f110,0x05fd03e3,0x09ee08e1,0x07f8f00d,0x06fe36e0,0x10f8c1f2,0xda3c2a0c,0x0dcdecf2,0xd50d13f4,0x07fac850,0xeaeef7e7,0xf4fa3504,0x0204f2fd,0x252b0307,0xff3bdee3,0xb21b3421,0x3ffef2f1,0x0fff0708,0x02ed01da,0x1edec9d1,0x3b1ff619,0x05eb1a18,0xc615fa1a,0xe8def5b6,0xf6e8f4f3,0x012401f4,0xf504250d,0x282b00d9,0xff0103eb,0x1313ddc0,0x1ceafa1d,0xe50404e8,0xf84dc0da,0xce35f22b,0x0829dde6,0x23191b28,0x12d71605,0xdc0233e8,0x12050cf8,0xfeeae934,0x0700d4e4,0x1820dbf3,0x13da13fd,0x00060712,0xebf805f2,0x130ffc14,0x013b31fc,0xfaede036,0x44e2282c,0x2bfcf606,0xf209ed28,0xf6dfde27,0x19c7e6ed,0xefe233fe,0xd12a14f2,0xf4f22ff3,0xfdff43ef,0xd9d5f414,0xfdae0c19,0x0e190527,0x26f6d413,0x0ef83105,0xecea06d8,0xf3eaffff,0x1001e809,0x06f606eb,0xe9f905fc,0xee082a1e,0xe6fffafa,0x0034001d,0xfa39daf8,0xc535fded,0xf8fef6ef,0xdbdfcdd1,0x2e15e8e5,0xeb13e309,0x0a11d5ff,0x0a2d051e,0x18f80deb,0x21e4da03,0x080aefd1,0xde1c0b03,0x0f0bf700,0xdefdec30,0x06d7f1c2,0xea04fe05,0x0ad409fb,0xfb05a5f6,0x01f21cd7,0xf11234e6,0x01fd353b,0x2ccd2609,0xe3d4f3f0,0x1d0b0ad4,0x390a0c1a,0xf40d4a0b,0x162918f7,0xe9e6eee6,0xe6e2e728,0xfae5f5e6,0xcf0cf44f,0xe6fe0118,0xf3ea1426,0xb82ae705,0x0805dc00,0x060f3126,0x0efb12ff,0x0923e304,0xcd0befe2,0x10f9f707,0x2e0631d6,0xc8dd2249,0xfef92a25,0xe0db3712,0x28151dee,0x23242414,0xf8e0d929,0xdcf3e2d9,0x0d02151c,0xe1e9f5dc,0xc8deee15,0xe90f20c3,0xd6cb30cf,0x36e7f028,0xf0fcda05,0xd8e9eefb,0xf92ddc09,0xf2fc010d,0x04010a12,0xf507120b,0xfb05f9fb,0xfcd905db,0x25fcfdf5,0x1412fb06,0xf807ff15,0x18e8e8fa,0x1be2f9d8,0xf90817e9,0xcf11f026,0x1cf2ebd4,0xf0e5edfa,0x0714d6eb,0x03e8dafe,0xf812191d,0x05dff8f9,0x0b190ae5,0x080421e8,0xf4fe03d0,0xdc0b1709,0x0efe392c,0xe12424ed,0x0d4a0c10,0x37131d0a,0xe5f20522,0x281201d7,0xbfeaf412,0x25ef2cce,0x1f0e301d,0xec03d01d,0x0efa04cc,0x00e4c9e5,0x0ede31ba,0x212b27d3,0xf80aeff0,0x0df834e1,0xf2f824f4,0x03fd1d10,0xefeee704,0x062ff208,0x2a1c1633,0xec060a12,0xdc0738f0,0xda3224e6,0xaa4e16ce,0xebe50ae2,0x2bf6dde4,0xde2211f1,0xff0cc5e2,0xe5041248,0x09d60d09,0x03fae9f7,0x0ded3107,0xcdf619f4,0xf43ed914,0x25dbbdd0,0x02fe0e25,0xdcbdf1e9,0x57fed82a,0x0a071020,0xec1ed80d,0x000313e6,0x09fdffdc,0x040df10d,0xf9230405,0xfcf5fbf5,0xf4ff162a,0xcbba36fe,0x4bf0fc08,0x12afffe6,0xe6f507f6,0xf7201829,0xf8e50b14,0xe8fc0425,0xf7750600,0x22dd1efc,0xcdfbe91a,0xeafc133f,0xfea8d216,0xddd22df3,0x4df2a4e0,0xe52218ee,0xf56bc3e9,0x3eddec18,0xcd0cf8a6,0x052817d1,0x4a06dde7,0xc8de2142,0x0d25d8f7,0x3020e1fe,0xef09cd05,0x0ce11663,0xe6d9d0df,0x1cdd0440,0x2cb8d7ff,0xef47f2ff,0x2ef2e3d7,0x15e8f6b3,0x0ee5ef15,0xf620e9bc,0xc8defbfb,0x191f3d18,0xb7f101c0,0x14d7141a,0x07df5b2c,0x262cc3ee,0x280dd630,0x0dfadd32,0x12ff19e1,0xd41303db,0x0313f504,0x2d28d1eb,0xf648f6f2,0x272c0af2,0xded71f01,0xf1c8fcc3,0x0bd138c6,0x10409eeb,0x1dd20dee,0xcf0f0ee9,0xb6dbc82b,0xa8e60117,0xd911dc1b,0xce1ef544,0xb39c5dcd,0x28baf3de,0xf2e8136a,0x0a9ad408,0x2a1e0742,0x623d4fe4,0x8f06f60c,0x4323f843,0x0a50ecd2,0xda4638dc,0x63d604cc,0xb3f23f54,0x0c1e21de,0x2a2b48ea,0xf368e70d,0x2947181d,0x1532e2d8,0xf6ce3315,0xf710dd07,0x1a2de320,0x37f9e0c2,0xff190d73,0xf3f8b8fd,0xe02ced0f,0x16c7ed10,0xeff9d7d3,0x14053dfb,0x6de5e8ee,0x06e200b9,0xcf02efcb,0x0afffaae,0x482cfeae,0xd6fdf0a8,0x06d595fb,0x41d9080a,0xfec3fe73,0x9ed601ff,0x0c2bdbef,0x06cad09a,0xe8dd3407,0xfeeccb05,0x19161906,0x03fa2b2b,0x18d3ff00,0xc63c5032,0x73fe11bf,0x55f5ec1d,0x34320506,0xf310ba34,0x07fe87ce,0xf4cb25e5,0x28c52307,0x37a7a836,0x5b1d67e4,0x30c20b0b,0xdcd859c6,0x73f112ea,0xc7067821,0x56f1d2fd,0xeefd2e31,0x1307f65f,0x09da5c06,0xeceddf28,0xfceeff9f,0x8c2bff50,0xee291011,0xe5c3ed11,0x03d31528,0xb1ee0b0c,0xf904473b,0x4ff8edc7,0xf3f15df8,0x1bf9e0b7,0xbef4d5d8,0x0dff28c8,0x5420683d,0x46dee2e4,0xd02c83c2,0x26ee45d2,0xe30c2c22,0x0dd7b2d0,0x74500be5,0xff112817,0x24472e72,0xe41f1a1d,0x163ddf0b,0x0802f9fe,0x0c0e03fb,0x00e1fe08,0x05f214f1,0x0d4a5496,0xdc1bd708,0xdfadbcff,0xd1f9fb17,0x15228ad2,0xe0e0280e,0xfc7d1edd,0xd4f73cf5,0xcae6f1cc,0x50260c43,0xc894e5e0,0xf2065328,0xde284b23,0x7203fd16,0x06e09210,0x0e14df11,0x152957fc,0x12101f0e,0x3a03b31c,0x0e316b11,0x0fd3e30f,0x1ef0f2b4,0xcae9b5f9,0xf3f40dc2,0xc20109d4,0x08d61fb6,0x062423f1,0xd0bc97f7,0xcdd0abd4,0x02cf0623,0xf0ff8be8,0xfb542be2,0xc8f4f7c9,0xdfe835df,0x2ccdffdd,0xfbfc2605,0xd8200d57,0x23ca10e5,0x22396d43,0xff0fee0f,0x08082f2b,0xf8b023f5,0xb0e92813,0x09277042,0xf403ff15,0x0b1be714,0x0cef000e,0x0712d3e4,0x131425bf,0xfcf90bf5,0xf4149427,0xe0073707,0xcede2adb,0x4700eff9,0xfe27f5c6,0xf110adf1,0x37c1d020,0xcfdae6c6,0x2c19b105,0xfdfab1f3,0xf6090345,0x0bfa200b,0x1a040e07,0x14f0870d,0x3ee7df6e,0xe230e302,0xcbd8f4e2,0xeeed09db,0x08bd232c,0x0c0f27fb,0xc9dbeadf,0xb251d407,0xc8eedae3,0x190b10d1,0xf421d17a,0x1605f4f6,0xd6fdf9e9,0xba02a426,0x1b13bba4,0xf3e4ee0d,0xbfa317cb,0xe3270415,0x32150412,0xf8e9c11c,0x1148f1e8,0x0206d003,0xe0d10f02,0xee893b34,0x03b820f9,0x2d28fe23,0x33b0a609,0xf9f8f25e,0xff16f629,0xf3032c04,0xd7060e11,0x1564d5d8,0xecd3164d,0xb7d215e2,0x520318ca,0xe10177d4,0x5e194a13,0xd8cde52a,0x24dc081a,0x05f105d8,0xe0ecd005,0xf70635f2,0x0a10fafd,0xca010b1d,0xbaf3e407,0xb7346a2b,0xf0e7fbf2,0x14fae72b,0xe1e204ed,0xec06db19,0x1b36dc1f,0xd3db083a,0xfd15fa03,0x081101ff,0x07e9fe06,0x01f410f9,0x0218da0d,0x21bff309,0x011b4606,0x08e5f3ed,0x51249a0e,0x170f11db,0x0b29275f,0xbe024350,0xcd33e3ea,0xd02425e0,0x21cc14cb,0x00732cf6,0xa003f2fc,0xbdbff8fc,0xd009bfbb,0x03bca9d0,0x29db8e30,0xe90348f3,0x50f54105,0xeb00052f,0xf636dd28,0xd91c0c2c,0xe3def2f6,0x12ec32e5,0x9d18e7e8,0x05f926f2,0x0efbb0d3,0xd6037509,0x0362f61d,0x752bd330,0x268ed7df,0x07184454,0xabd2151d,0xb9bdff10,0xfe25d6f3,0x29bf1ef6,0x3e1cfdd6,0x2e12c3fe,0xf802c4f2,0x0511270f,0xfa89b315,0xde1ad4dd,0xf6a61a19,0x62f1b00b,0xcb5ed513,0x5801e62c,0xdffd17ca,0xb2ec05f5,0xe2b9ec1f,0x731ef6fb,0xf59fe3ef,0xe718be44,0x17910608,0x0710fae9,0x16fe2c1c,0x0b0bd9fe,0xf8fe132b,0x33be2920,0xffeaff11,0xd227b8fc,0xf30c0845,0x15f11f0e,0x16070b04,0x18f28910,0x0c23385b,0x2cf20514,0x31d809b4,0x33e3860c,0x212447cf,0x5daa111b,0x73dbd6e7,0xec36e4ec,0xebfbf92e,0xd6ca38ab,0x5af81ad4,0xfdd54b14,0x883231dd,0x5b25f127,0x0a34513a,0x2c0d664b,0x2614f014,0xc5ebf9e8,0xf03042f8,0xf602e918,0xbbf1eee0,0xf31786c8,0xf607042f,0xadf9ff19,0x01f2114d,0xb01f090d,0xd6fb1319,0x2f3caf07,0xd123eef8,0x49fbe14a,0x3228fa8e,0x1378c71b,0xfd09c8ce,0x0ce21d14,0x2aed210b,0x33ff2851,0x05e9d7dc,0x2afb24d2,0x210dd07a,0xceecb8ee,0x021be44b,0xf4031123,0x42f204ff,0x0e0d02e0,0xeaf6024b,0xb4251216,0xae181471,0x1f0c3103,0xe813dcfd,0x071b0f0e,0x1b15f3a6,0x145a2e16,0x0a06f6ea,0x0af606e1,0x37104705,0xf6080120,0x0a0f21e9,0x1dd38b04,0x16e8e740,0x14b040ea,0xe8d7eff9,0xed29d2c0,0xd2ff78d9,0x14d7d8fc,0xe22b12c9,0xd72df110,0xff200b74,0x1648fa48,0x2d2cabfd,0x920f190e,0x06455405,0x06021add,0x156b4711,0x9a3dfdd6,0x0f5bd448,0xe91a1240,0x19d82f21,0x302bc473,0xf82b2233,0xe612d811,0x85d71b57,0x5726412b,0x3f3408f4,0xe92f0def,0x4d2712f9,0x06033ae0,0xd1128b22,0x92dde403,0x8f11f0db,0x0a36a4ea,0xbef4f00e,0xf2cf1501,0xeb57db0b,0x1dd028f8,0x96dab7d8,0xf3fc2d02,0x1cfddb51,0xdf96e040,0xfd261123,0x19ed2c39,0xbdc7a4d9,0x3195d109,0x19e3ede0,0x9b00ba26,0xb478e4f4,0xdd041dee,0x5cc5f69b,0xce66e8db,0x0a57c932,0x032048c4,0x0be82ef0,0x2d391610,0x294b7101,0xd30315f2,0x2f31dbe9,0xf0f81903,0xdddbd915,0x09cbc3df,0xbe2c22ca,0x410af7f3,0x406b4623,0xf827ef04,0xef28feca,0x20190c09,0xfd12d1fd,0x102615d4,0xe3fa1ffc,0x0df62cde,0x1c30ecba,0x28cec1e1,0x0139d0dc,0xe10c09c2,0xfde70b1f,0x26265de2,0xd3f0290d,0xbd27aecf,0xf7d32b18,0xe1f7163c,0x9b0a3035,0xd400f298,0x25042ff8,0x04f9056b,0xd203181e,0xd6e4f3d8,0x25c6cb5c,0xeeb528f0,0xea22e998,0xf1aa0b06,0xfcf2f70e,0xe5e02234,0x13f8beaa,0xeddba007,0xaee30344,0x9f6a2c3d,0xcde325fd,0x006ff3c7,0x1e192e31,0x05362b0a,0xbf0afe0c,0xe63ed0d4,0xb2295033,0x0514fbbb,0x202a23f5,0xd7221549,0xf336c512,0x03041022,0xff0f1411,0x14661b33,0x2ef9f90c,0xacea53d5,0x64142fe1,0x99c3f713,0x4f1de3f1,0xbaebeae8,0x25e6d519,0xe1fe7425,0xe8e125ff,0xdafff8e9,0xf7e9011c,0x10c0d3e0,0xbb02ccd5,0x226c1322,0x09f34732,0x3d57d539,0xb0cc0901,0xe0df22fa,0xcba9e619,0x119ed5ed,0xbacb2514,0xf1061cff,0x12040404,0x05bd179a,0x1147090d,0x2fcfebf0,0x4b0f17e5,0xbdec62ff,0xa65dd9d0,0xf008b9ca,0xf67c240c,0xd3a90af9,0xc2d93909,0xa9232b10,0x01059eb7,0xfdd839c1,0x29fb0906,0x72f0531f,0x28130d23,0x2a190802,0x11bb44d0,0xd6141e0c,0xdff9aad2,0x4511ed96,0x36ccf7c5,0xd53dd5f7,0xe019fd2d,0x0bac02da,0x10eabdf9,0xeb04f2de,0xf205bc0b,0x37081115,0xaa06d8a0,0x2b50ba34,0xf6f91f17,0x3ec58ad6,0x4013053e,0x29d61bdf,0xf9efb337,0xa2d4961e,0xc2d21ecc,0xddde471d,0x17e9c401,0x723ab0a2,0x263e0302,0xe3ee212c,0x211ad212,0x93218aee,0xfaca36d2,0x942a2b22,0x6fae1356,0x0cfddc5c,0xe64b6203,0x32d9ce0e,0x2c0358e8,0x05e3be3c,0xdaffed10,0xee112429,0x3b38ea15,0x1a1366e2,0x063bd1fb,0xc2ef0d99,0x540e18f5,0x782438ba,0x09afcd21,0xc3d2fa29,0x24a123e6,0xff690a02,0x9c6726de,0x2906df20,0x0af928fa,0x46fa3b02,0x21bc0521,0xa60508e8,0xe6effd62,0x3a0619fd,0xfff4d362,0xd9701225,0xd9f8d5ce,0x26e41b32,0x1100dc0d,0xe82918e9,0xe4dbf703,0x220c0ff6,0xf632a901,0x3634be89,0x1018e0df,0xdc930ffb,0xc21a164a,0x250ca815,0x2417e536,0x714af9d7,0xf4a83715,0xdc290f48,0xbb3023d3,0xd20a057a,0xd5c8cb43,0x030df1e3,0xde081f0a,0x5bb894a5,0x004817f3,0x06b1b604,0x36d2d0f2,0xe4b12d48,0xd01e4ae5,0x5a0de4c3,0xf2ddfbc1,0x06f831e4,0xf6dce609,0x0426ebbf,0x3a78abeb,0x45f0d0cd,0xd439c8a5,0x5cf01729,0x63fbc2df,0xf3fad108,0xfc2325c4,0xec98d2e8,0x0c1b7d65,0x59ea58fe,0xf0f1d4f9,0xdde4e0f1,0xe301d4c3,0x0df9afe5,0xec09d948,0xb8e7284c,0x14ddfc0f,0xf2120b53,0x1ce03ce1,0x28c219cf,0x1314fcec,0xcccfb3c9,0x2fa9fe08,0xe54e01d3,0xc8071344,0x9dbf8f42,0x370bfb1c,0xebe3d1b8,0x53c3420c,0x4635aab4,0x04e893fc,0x90d8e75d,0xc82b4d3a,0x023cefee,0xfbff3cfe,0x14140007,0xed52ac18,0x22cb33ab,0x03d512cd,0x2be6cbc9,0x561c2b07,0x2c398ae1,0xf63d36ac,0x39fed2d5,0x30189bad,0xee09ffe1,0x88a5aaf8,0xe7e62fff,0xe5fcd9e9,0xcc2c0e36,0x55e9b323,0x1228de69,0x1a251f1d,0x071ff501,0x0d43e213,0x1736fa22,0xf5ff411a,0x27d5fb82,0xe1ec2322,0x46c60808,0x184bec10,0x2f0a5938,0x92f9d711,0xf4dabee3,0xf9ce25e1,0x00fd09e7,0x12f8f6f4,0xf220f2cf,0x06dbe396,0x29cce3ce,0x45d41568,0xce140fed,0x21f7a6c3,0xedee03d7,0x2107e304,0x88012240,0xefeb1c11,0x2dc346ee,0x18e7e206,0x122f2aff,0xf60bfa0f,0xdcc8fb1c,0x1c131003,0xbeeaf905,0xe315f70b,0x1ca1ec17,0x0d39d2ed,0x2ebbf810,0x312dbde6,0xe3ea22ee,0xf8de64af,0x1372c614,0xdb424665,0xb0d2e866,0x292b12f6,0x40e9d7e4,0xcddee5d6,0xad5c06fd,0xc723261f,0x09d8f38a,0xcf16e1b7,0xcf0ac5db,0xfb032bfa,0x1a0249e5,0xdf14cc6c,0xf7ded62f,0xd8daeb10,0xfa1f644b,0x29d82311,0x1d72f8d1,0x1b05092c,0x4b22f41f,0xf5cafa39,0x18472a0e,0x0cec1efb,0xd0ec18d4,0x0c3df6cc,0x31fa2f08,0xfaf3db33,0xe5e4fe18,0xe406118d,0xf9029e23,0x3308cdbb,0xf5367c38,0xf2abe516,0xa4b392ff,0x2bde0b30,0x1622f7cf,0x23060308,0xdbdcf218,0x2fc113cd,0xe75259cf,0x31ecea02,0xee75ca05,0xcc55c80a,0xd86b3d05,0xcccddcc4,0x0ad51716,0xfb0af11f,0x06f1fcfb,0x15082b16,0xdee4d706,0x04d191fd,0x0df63800,0x16d11bb7,0xe0e626ed,0xc90822e3,0x26fbe6ee,0x07d8b7cd,0xdde8f0b6,0xdfcb920c,0x32bbfcef,0x2507174e,0xf9eed5dd,0x7441caec,0x3ec6080d,0xf73c19d6,0x0fdc3fe9,0xf0188bfe,0xa6fe22f1,0xe342ef04,0xaed4e002,0x30bd0252,0xf627fb00,0x57bc08fd,0x2413f10a,0x18fa5c3e,0x29782b28,0xe1100734,0x2636ff0c,0x42363203,0x3ed403db,0x45699307,0xa2144908,0x27e6e7e4,0x0c6e0114,0x1bf605ff,0xeb090bd7,0x9c9e3725,0x44f4e700,0xd89016cf,0xeaecbbc5,0x030cd8f7,0xec4e2ed5,0xbbcb0542,0x1cf6b943,0xbd0fe1e2,0x6adfd52a,0xf306dd02,0xd9033710,0xf9fb1654,0xef9407be,0xf31fdf12,0x4c245f3f,0x034a6307,0xf3f2c9e3,0x3b5f6802,0xebb2720b,0xbe27eccd,0xe20d4407,0x31eb0cfc,0x0045c817,0xfdf0e531,0x49b8fe19,0x14472038,0xde081fee,0xe823cfe2,0x1d0a5f09,0xf0e701f0,0x1141ce00,0xd03cc424,0x98f017e3,0xaf1ff170,0x0a0ef9db,0xccf3ed14,0xf397b606,0x109e0534,0xd2c11927,0x6b422435,0x20c818e9,0xfd31f7b7,0xc6118aec,0x1de4d72f,0x03204e07,0xc5d4f806,0xd821fc0d,0xfc46ea0f,0x7101190c,0x71e9ead2,0x09340afc,0x1208bbf5,0xbcc8f739,0xe614e7df,0xe2d3c7b4,0xb60f25a3,0xc8dc1e42,0x50dfea03,0xe8e1213a,0xed2f1a07,0xfdeafb2a,0x0af50e1b,0xfdff09e7,0x16569238,0xa93bc9eb,0xb448ff24,0x45b85331,0x0595131d,0x5ee6c10d,0x9a540dd2,0xe8e4eb20,0xf303cd21,0xd523130d,0x03352117,0x092aef1c,0x28bca4de,0xe9ad14ec,0x14c3b4f0,0xfd1dc1cf,0x0a23f1c0,0xcc15c824,0x3dd411d5,0xeecbdc1b,0x8305ece4,0xf70e01c5,0x23d40f2f,0x1ae31404,0x8ff214e6,0x1b162495,0x19d8ed0a,0xded8a2ee,0x10efdc1b,0xf3f30ef9,0x10c6fb01,0xefe12005,0x2822d7e0,0x88022408,0xe95731e0,0x02f434f5,0xf3f5d5eb,0x17000ef5,0xb19b40b8,0x2e530a97,0xf4e1f506,0x29fde9fa,0x041c0c10,0x09da30d7,0x38c6f09d,0xd71d13fa,0x1cf13d50,0xf1cf0431,0x4d08e123,0x66514835,0xe0dc3df3,0xd43152b8,0x0c1dd5fa,0xc7dd18dc,0x05f4f00a,0xe9cecbf6,0x3e1dfa30,0xf1171a2c,0xceaeb9c2,0x8dd406ea,0x352bf434,0x49ef41df,0x07dea32e,0xa2f3b410,0xc1d69002,0x50e30513,0xe9dc0c11,0xdde0e20f,0xc1dde6e3,0xec31c9f7,0x0df5dcec,0xc4bb712c,0x1eef4424,0xddee19e8,0xd2f5c995,0xfbe42fdc,0x14fdb303,0xf202e5df,0xf01afffb,0x3c045808,0x9dd7b3df,0x56a30f00,0xfef69a2a,0xfe5cd3eb,0xdfacc017,0x2fad5e0d,0x8cb4f705,0xddf1c7f4,0x0af877ff,0x094cf8bf,0xec9c6ae3,0x48f2ef00,0x483b2ee1,0x013214ce,0xd21c843c,0xc6c29979,0x11c111ff,0x1c143e00,0xcacf160c,0xcc1bc6d2,0x1ddff617,0xe60bce4f,0xc7b74662,0xe2edd53d,0xe6e4f410,0x0bebc054,0xc7efba01,0xcd09f4c2,0xf206fef9,0x19fe9b26,0xf4cfd92e,0x6b20292e,0x6228052e,0xeadcdbe0,0x0c28f32f,0xeed3d9f1,0x441df31c,0xd2e60cdf,0xcd141c6e,0x0fbf51db,0xc2dbec9d,0x311d27e5,0xff8de825,0xe51ab5f6,0xe544170a,0x05b6cb0f,0x27e1c0f7,0xf5902d31,0x1500d732,0x0c091f12,0xee120506,0xfd334d24,0xf8ee67ed,0xe8db3414,0x012e0cf8,0xb4f5f8cf,0xfdfdf3f5,0xb8421413,0xddfe04b8,0x1ffec5e5,0x150e1500,0x0736094a,0xdf1f88fe,0x01c438e7,0x0a031121,0xe4ee0f06,0x0b142d75,0x311dfcce,0xe6f0f918,0x2bbfbdf8,0x0f85ffd0,0x0f3c42d0,0x13c802cb,0x330ac2ea,0xfe30f930,0x2ab0d818,0xcff2093c,0x0bdc440e,0x0cce0e02,0xa8c14e0b,0x180c21ce,0xeae31c33,0x1b278beb,0x4e6628be,0xea2bb61a,0xe10128f4,0xde561aca,0x0dc7084e,0x0ed51208,0x7312c6eb,0xfac1ffda,0x1b589e38,0xbbbb760b,0x3f46cbc9,0xd28570c6,0x641bb8f8,0xb40e26cf,0xfbf3ef1b,0x1fe1464b,0x1130c2fe,0xf8d43403,0xdd98e1f2,0xe4e850fb,0x1bc5e1ab,0x2b8a3c29,0x3297b1fd,0x1b1efc44,0x09ed10f3,0x1e2b18f5,0x1cd3f92e,0x48419859,0xb60b14de,0x0a02fabf,0x05d39642,0x4032455a,0x0228271d,0x0f326dfd,0xc5121df3,0x0a41fbd5,0x09f438de,0x253debff,0x20dddb0a,0xf70fa5ff,0x0d4cbc1b,0xf2d110e6,0xfe3f2f08,0xef232a33,0x6f46cfb9,0xcd1a0ded,0x15f500d9,0xeee2a2ee,0xcaf1efe3,0xc5d8f9ea,0xbe93c112,0x270240ae,0x54ee2c09,0xdabb0311,0x0847cee9,0xfec450e5,0xd3041913,0xf6cdbe16,0x46e7e40f,0xf5c6c9eb,0xfb57db01,0xc904240a,0x06081bfe,0xf91002d6,0xee1caec8,0xb310fbbc,0x0ef05f40,0x3de3212b,0x690bf90c,0xf10debff,0x5df2e30f,0x3307d3b1,0x104810f4,0xe7edcdd9,0x213ee2d1,0xea233117,0x54c618d6,0xdddb1fd1,0xffa4bcf1,0x0300d76c,0x73d622eb,0x0340efe5,0xd5282e4b,0x0bd81b2f,0x410ad330,0xf4cfe5c2,0xf7074f18,0x0205061b,0xd5fde890,0xded8e9f3,0xbd0f2046,0x60f40c1e,0xcaeddf56,0xd7001fdd,0x0dc5f539,0x4704c878,0xf02e21fb,0xdbe70afc,0xe616fdf0,0xfbe3e60a,0xf2cfadd8,0x99e4f6ff,0xd71a1df8,0xfae9dd6c,0xd9b4cfcc,0x30d3eed2,0x27200c96,0x441cc309,0xcc2c379c,0xf30ecb2e,0xa7021bde,0x8a390a41,0xf225dce5,0xec54f742,0xdb2208ce,0xedef272b,0xea3109dc,0x27eaaddb,0x9e4015f1,0x1c47f3c3,0x563e032e,0x055af50b,0x41e2ee04,0xf50fee8f,0x0868dd03,0xd372ed27,0xe3b0400d,0xf2e9ebf8,0x20ea2353,0xfdf2e2f6,0xc11dfed7,0xe4d3dd06,0xf7091313,0xcdc9c8dd,0x9df5fd2b,0xeb98fb69,0x55cb3cce,0x46fdf5d3,0x335b2df4,0x9b63d8d6,0xb9fad934,0x19e7cee5,0xe3ff1e92,0xd4cdd5bc,0x18dedcd5,0x0cebe327,0xef091738,0x35f75ff2,0x2ef6cfe6,0xe4158efa,0xd8df1415,0xe727c906,0xb1e2ecd3,0x1d8914b9,0xd912f04f,0xe901d5a3,0x15a30802,0xfae5010b,0xe81ce1ef,0xe1f57000,0x24d6e8ee,0x3df4d5fd,0x132c29f6,0xebf644d2,0x4e04f2e1,0x05130604,0xf657216d,0xf5c3db34,0x3731da2f,0x0c3016c5,0x7c18dfd4,0x0afff327,0x1fe52f53,0x234fcf22,0xfd09fceb,0xe3f590df,0x2128eaec,0x231191e3,0x8df31716,0xe56244e6,0xede41cf1,0xeee712fb,0xf212cffa,0xe7ec72e1,0x28d4ebf8,0x270f091e,0xd2e4dd68,0xfc27fa12,0x4c19173d,0xf905ef27,0x142130c9,0x211e02b8,0x33f72113,0x3e1fb31c,0xf4f9f50f,0xc93cfe6d,0xfdef29e8,0x49180dd6,0x05c40631,0xeb2a26d0,0x173de32a,0x061ccea8,0x36befae7,0x4b2eaecf,0xf212e8e9,0x1d11dfe5,0x37e9e79f,0xdbfa3cd0,0x1dfdf6be,0xdfaa1ec5,0x512dc31d,0x33d6dfb5,0x0ec11570,0xfd23ce4d,0xc9e7370a,0xa3edf8fb,0xf34118e3,0x3905c0dd,0xb70104b8,0x29f59d00,0x00e11a14,0x0d00def6,0xfb0f00cf,0xf5021a1a,0x0ad523f0,0xe3e73803,0x71e22adf,0xf5ddbd11,0xfceda3d9,0x2bd6c827,0xd5bdb7c2,0x2524b404,0x0517c4cd,0xc3bbf405,0xeafe0626,0x0b342009,0xc8fd0755,0xf4e0f5ee,0xf5fcad89,0xfd2e044d,0x06e22fb9,0x24ec02fe,0x3cfc33f8,0xadce0f02,0xb846fbd0,0xe312e112,0x011afad4,0xdefd2111,0x12de1ee9,0x49dfcb68,0xdeda28e7,0x1d05bfee,0x42dd7e10,0x4818f9f5,0x36b61834,0x193be918,0x1099351e,0x61e5ddb4,0x1f15fda4,0x0c37d3df,0x29aac6c7,0x02d4ea0d,0xe501fab1,0x1436fcf6,0x2e076d0f,0x240ad8b4,0x291b25f5,0x171403d1,0xf0f0d48d,0x40244f20,0x0f430103,0x05eff6e9,0xda32f718,0xc8d7d2af,0xd5d91eea,0x44451602,0xfee148dc,0xdfed853c,0x2e36f64b,0x061ce567,0xfacc5d44,0xfe6e3030,0x62faecea,0x273a1af5,0xaed86ef6,0x5333fd31,0xcb281c01,0x68ba07f2,0x26d7e1c6,0x02eb20fd,0x0c2cc214,0x0c362aaf,0xe529f4ea,0x162a1ce2,0xdee13844,0x1e35950c,0x225036f4,0x0f0cfb50,0x253efc0e,0xe8bdb8f2,0xdb060f16,0xf5e4393d,0xf99213dd,0xdc3ef313,0x46395f01,0xfdf0bc24,0xb1d847ed,0x0318ca6c,0x86a224db,0x95eebeb4,0x9722abdf,0x12c8efcf,0x97dfdbaa,0x03d7d40d,0x0ffe0639,0x02e9d8f8,0x1a50f609,0x14ef01fc,0x1b4d0af0,0xc7f20f4c,0x3e23842e,0xee4cf8f5,0xfb319131,0xe6c51913,0xdd29ea16,0x330de91d,0x27d611c4,0x1901d7d9,0x4ffb3bfe,0x19152323,0xf006cb5c,0x08fa22e5,0xc41b5212,0xb12c94ee,0x1b0be60c,0x4dfbf6b3,0xdeebe21d,0x042a3137,0x1cf6fefb,0xed022ef8,0x0f0bf879,0x31e13dfc,0xc6e8e60c,0xfa165209,0x41d334e4,0xe11532fb,0x8d0738ed,0xf4fb0324,0xef14cd16,0xde1d05d7,0x12f534ee,0xcb0cded1,0x1bdedee1,0x43f8fec7,0x2a3900f3,0x17e5fd11,0xa9fafcf4,0xb8e9281c,0x190c0817,0xf7f2f4ea,0xc211aac6,0xfce0ca5b,0x4335701d,0xf3feee73,0x3786c71a,0xf4140d23,0xedff2feb,0xe002c7f0,0xfcd8300e,0x3a1205ff,0x9ac0e8d4,0x11171f2e,0x18c92049,0xee1a2ada,0x4ae2bd24,0x3832b5bd,0xedd0df97,0xf8210ffa,0x26f2f914,0xee150283,0xff64dbec,0x1ad520d6,0x1941f22c,0x132410fe,0xea51c0d1,0x020d680a,0x1401edef,0x3c311cda,0x10451be5,0xf7eefce0,0xfafa75de,0xe83ee7d6,0x34d50a11,0xced450c7,0x32e98713,0x2a1af3d8,0x2254151d,0x49bae539,0xb4133302,0x22dc2b3e,0x57f1c3c8,0xc66bbff5,0xf8d85300,0xb81a350f,0x195831f3,0x1ae51127,0x1fc2d9f2,0x04ccdefe,0x0adef9d0,0xd0fa2f8c,0x4513ec20,0xd5ffcd44,0x1f16de21,0x1fd83cf8,0xf9f9e68c,0x0312ede4,0x0511bf1b,0x1ad80f0f,0xcc1e36de,0xcdc70de8,0x22b70b98,0x2ffe2922,0xc9afc4f7,0xfcfdfd1e,0xe4f7e41f,0xff053174,0xe533baf9,0x3b10dbad,0x0ab915db,0xff0508e8,0xdb002f0e,0xdbf6c60e,0xfebad702,0x45341d94,0x3b18f75f,0x0affe2fc,0x9a0adf2b,0x06f43109,0x0231c2c9,0x001bd835,0xef08c6e3,0x21c7ddf5,0x2fe53417,0xd4d1e722,0x1407c0ef,0x3408fd19,0x20281770,0xe8e53af6,0xead2d41d,0x1ff7c1f2,0xa3dd022c,0xdefe012d,0xe60c3b22,0xcf0fda05,0xcbef0811,0x320d2ff0,0x46304103,0x243cf0d3,0x0427000a,0x2102e7c4,0x015cc011,0xf4c578b4,0x2befff02,0x3bdb01a2,0x1ec71d16,0x063804e2,0xba56b7d6,0x2124b8d8,0xf2cccec6,0xf512c0d0,0x2308bde8,0x2de3f40c,0x1e905318,0xe10ddd2f,0xcffd63e4,0xc9664554,0xe6d906d3,0x2effd4ea,0xd73d17f6,0x3cf90127,0xccfde8e6,0x2a12f301,0xd828ed01,0x27081bb5,0xffe41607,0xfade8e0b,0x32f940f1,0xf9e7d6dc,0xfed5e50f,0xa8590a1d,0x46db4b08,0x070502b7,0x01b911da,0x368c33ef,0xdffdd817,0xef23fb19,0xe5ef543d,0x28e3e33c,0x0bfef0d4,0x2adab6ac,0xfcf54ded,0xdcc1f4df,0x206f2b3c,0x2408d3fd,0xf5de2bff,0xdfa22614,0xf50cdd24,0xe15700ce,0xe7cc0b66,0xf4f2ed26,0x06300e0c,0x0943ed0a,0xf8f507fc,0xf50c1f19,0x11e910fe,0xbeacf7e9,0x09f8c9fe,0x090df890,0xf5f40906,0xfe0413f2,0x04cd16f5,0xf5e7d30c,0x06de0042,0x1624fb30,0xe6f5251a,0x020fea01,0x46ce54f6,0xc3d6b804,0xf3b2b367,0xa7fff2e9,0xe0f1e719,0xe706faf3,0x31b7f9a1,0x1beef5e5,0xfbfbe50b,0x060ae909,0x02070cf0,0x13eb02e5,0x16e91102,0x43acf0e5,0xf8fed400,0xd30af4ed,0xf6f20be5,0xf706e0f3,0xfdb4f6f9,0xc5f9d845,0x695d6ce4,0xe5ebe6f8,0xd9001524,0xaf143763,0x09fb06ed,0xeee4b0ea,0x66c613f3,0x2405f1fc,0xe4e52417,0x04f26ae0,0x2afe5ef7,0xe3ab5c29,0x04e1dcbc,0x7d3cb4b7,0xa3d9987f,0x4210bcf4,0x0cf3c7a0,0xdfb49aab,0xef57fbd9,0x30c53f1d,0xaefebe65,0x62c4b862,0x67640017,0x66f2d58e,0x9d06bfea,0xe213fbec,0xe35a16f8,0xfbff08ab,0x09f606f0,0x5aefc2de,0xa6d3eef7,0xf703ec0b,0xe0e327a1,0x03f1fbe0,0x2a0ca0f7,0xea1fe911,0x16181f00,0xd2b52dff,0x10fb0a01,0xf1e61521,0xed13f0f4,0xc48deff1,0x21e995fc,0x3a16f7f3,0xfadd140d,0xec0521ef,0x0727140c,0xf453f5f7,0xfac3f4fe,0xb5bf62f3,0xf7fdfb2d,0x0ee0fbf0,0x9660e8e8,0x3fc69401,0xfd8ef6e6,0x2317f40c,0xecab5b14,0xd643e9df,0x35f8fa4c,0x1d26eae1,0xd402edff,0xe3fd39f8,0x0cfe0c01,0x0789fdeb,0xee09eff1,0x1b9ef1ee,0xf6e59bfb,0xf813f70e,0xf1e316f0,0xef06eef0,0x082ce70e,0x0de5eef4,0x2bf109eb,0x2320fce7,0xf8f720ed,0x0dfb270c,0xf2cce121,0xfcf325f8,0xf70bf8ec,0x1e0eece6,0x0f38fa03,0x040206e0,0xeced2928,0xcbd7dcf2,0xd9ea5fe8,0x073bf103,0xf1eafcf7,0x71b65c52,0xcde2ad4f,0xf3edf0ff,0x62e2f2f8,0x625af1a8,0x2af0eefa,0xe7dee9aa,0xbbf72830,0x0ee2f21e,0x1ef13af0,0xe2dff826,0xfdeee7f7,0x16032d0a,0xf9decf09,0xf3f7edf3,0xee031829,0x171416ec,0x0ed1f903,0xdc0203da,0xedeee526,0xbbd901de,0x4fe0fae9,0x4c7f53b1,0x03f168f0,0xfdc2e5fc,0xe3a9b868,0xfdd566ef,0xfb3dd298,0x0b11d0ec,0xfa59ee01,0x42e5fcd2,0xfcf36c33,0xaa62a0b1,0xbd5d16bc,0x15f3b5f1,0xc3aad899,0xca97fcf6,0xa3c73205,0xdeeaea46,0xb571ccef,0x2eced9f6,0xad06094d,0xaf47dfa6,0xd15a355d,0xc0e6fc5e,0x4ae11ce9,0xc149525a,0xfe62bbf5,0xfcc9f401,0xea62b4f0,0xf6d7bcec,0x06426267,0x140a5ee5,0xf19ceb03,0xf2ea00bb,0xf9e9c235,0x16e62202,0x12f1cfff,0x27e4f7d0,0x11f616c9,0xeef6fef8,0xf3ecddf8,0x0cce0ff3,0x00c2f5db,0xe0f7f7ec,0x012c0df6,0x39060aca,0x1ff1df12,0xcbf042ff,0xa1f7b1ef,0xd94d140f,0x631efa0c,0xd2e29cec,0xdf3595c8,0x4b86efdf,0x64a5f1ea,0xa3f2f698,0xf20449e6,0x426447a0,0x5fd1d22e,0x0bea1f0d,0x0cf101fc,0xea48ee17,0x0e28f7cc,0xe4f4f5f6,0xf04ad9c4,0x09d3eff0,0x02c7163f,0xe2f00ef0,0x00d411f4,0x06050bc7,0x1df0bd16,0xe1f8f200,0xe7f91405,0x13e4231b,0xfa2e2af7,0xe8f0e2ef,0xe71a0c06,0x30eceeec,0xd4eef3f3,0xf117ef10,0xe10ecbb0,0x18ec1702,0xf116060f,0x05f9e8ff,0x0ef050ed,0x2cda6715,0xeb901401,0xadd7d7a1,0x935c20dc,0x44f3b794,0x0f00eff6,0xa265df5d,0xc02aaac3,0x72ad0a10,0xfe3ffa03,0x18f8010e,0xe3150d04,0x11e42119,0xfa2f29f7,0xf5f1e9f6,0xec0ee008,0x3823e9eb,0xdd19ecf6,0xef171a1e,0xe30911b8,0x1df02606,0x1415e2fe,0xa4effdc1,0x06d3050c,0xf6d3f704,0xe31b07ef,0x2ae4effd,0x05fdffcd,0x199039f5,0xb7ae01df,0x030ce7fc,0xf60fc7bb,0xc3f8f80c,0xaefd1776,0xf4517fdf,0x5ad3e5a0,0xb561eda1,0x98f44e59,0x00899f0a,0x15a47f95,0x69021611,0x1ef17f56,0x0c00a7ea,0x14480dea,0x9968984b,0xf52a7fda,0x62eef867,0x03660c0b,0xfdd8f608,0xe01406f1,0xa3e1f7f9,0x0900cec0,0x1c6d96fd,0xa756fee2,0x05036605,0xfe1053ae,0xb7f2170c,0x5bfdf7bc,0xee01f7ec,0xeaf4e81a,0x0eeeeb0d,0x060827f3,0x3aef3e10,0x13ecedff,0x39e4170f,0xfbec0bed,0x0ae8f5e4,0x030609b7,0x34030506,0xeaf5cd04,0xf616f0e0,0xfdf4d62e,0x0ef8ac01,0xfed11cf9,0x4cdb4e58,0x5af1e7de,0x34fe325b,0xd1fcfde5,0x5a9a0fb8,0x7014469e,0x5ef90311,0xf698f9dd,0x1c01f210,0xe811e71a,0x09f1ee14,0x010421f3,0x0bfd3012,0x0ef2e3fd,0x3321fa07,0xfb170dee,0x05e515de,0x08ff0bb3,0x33070d04,0x1aebf3f2,0xfef1f7ec,0x340ed8f9,0xeb02c90b,0xcd1420c1,0x19f216e0,0xdd0009e9,0xfbdbf1f6,0xf326edfb,0xd93004cc,0xec02c512,0xf619f236,0xfbd7f6dc,0xf9f5f9f8,0x325b01f3,0xfef0c367,0x28fb07ed,0x15030496,0xfbe90c12,0xf305a09e,0xa469f1d4,0xe2bdf299,0xc428ad20,0x16e1bc5c,0x069dffe4,0xf5eff1eb,0x300ccdf9,0x011cb90c,0x06fadac1,0x1202c015,0xe0000bf8,0xf812f4fb,0xf5f3e9fc,0xd7c302c5,0xed05ca0d,0x07fce72f,0xf9ddfe1d,0x56f214e9,0x3f049dfa,0xb40fcd14,0xc0656ec6,0xf8e7212a,0xd3e6151a,0xd8ac58ff,0xf649eff6,0xab4ef7da,0xd715d912,0xf2659c0c,0x08c1f59c,0xbf5ba552,0x0ffba2ad,0xfca8e8f5,0x65cdfcb4,0x58dc7f51,0x5e27be7f,0x59fc7b45,0x01f551d1,0xf7deb94c,0x8faceaa1,0xcb0b6dd7,0x3554c307,0xfdf510de,0x390186f9,0x56419d11,0x16bd9bb5,0xfdec1114,0xd1db1af5,0xdd5c1ffa,0xf9aeeef9,0xafedfad5,0xd713e714,0x6290a00a,0x11ce576b,0x0bf11bee,0x16ede300,0xe9f9c0e4,0xd4ff23df,0x18efc509,0xf9e71006,0xf8d8e715,0x18d8ed03,0xef16f6cb,0x3a0bb713,0xe4f6f0f7,0x04bdf5e7,0xf0df2b03,0x35b0abfe,0x04f5cea6,0x0e0cf6dc,0x00892bcd,0xe0a516ed,0xe307c33a,0x5ad8f859,0xde4001af,0xd1029b03,0xec0ac6e6,0x0e19f5f0,0xfdf316f0,0x1bf0e6ff,0x1816b9de,0xfa03e3d6,0x17ef1e01,0xf6df10dc,0xf927e71c,0x16e4f107,0xf6d8f5cf,0x390ab111,0xf210f5f6,0x04cd0b30,0x15d31fc6,0x2b25d009,0xf5c513fa,0x0406e300,0xf120fc0e,0xf6090ee2,0xdd01110b,0xe1fef400,0x0201e0e7,0xd90704fe,0x10f9f8e7,0x00290900,0xeddd2ddd,0x0fe7f4ef,0xe501cae3,0x010af100,0xb7e81ac1,0xd7d1cdf7,0xff08f8fc,0x25fde100,0xef36f6e1,0xf235c72b,0x3c01fad1,0x0bc3db00,0x13c424d7,0x27d9fdd8,0xe21919ff,0xfec7be00,0xfbe8fae7,0xcc0bd2c6,0xc100f933,0xf6e72000,0xdff3392a,0x051eecef,0x1a2d0012,0x11ea1800,0xffe9db02,0x020f00e7,0xd300f259,0xcd100c00,0xd825eefd,0x02e5ff30,0x382e3c3a,0x37ea2b00,0xfdfc1800,0x0813f6f9,0xdee31506,0x45ce1c00,0x1df916de,0x02d7e275,0xeafb0f0e,0xf2c2f600,0x07bd03b8,0x3e0fe1fd,0x170a28e2,0x2abd4800,0xf92f070e,0xccd514f4,0xcc3bfa07,0x6a19c800,0xfbf1eb01,0xfeecfb03,0xe5f2191e,0x03dbfa00,0xf5d5f401,0x0ff31b06,0x3c040d32,0xe554d226,0x2f1532f5,0xf1121cc5,0xe98cd1b8,0xfd1609c2,0xe4d6cde1,0x1403bb20,0x3a10df13,0xcd1bfc46,0xbcf9ec08,0xdedf372f,0x00d129f3,0x14092438,0xe3c0e198,0xf6fd04e8,0xf6defbda,0xb3edfaf7,0xf10ec1f3,0x1e25bd43,0x14c62efe,0xc7cbef0e,0x1ee7fb18,0x14eb31fd,0xe3e2f6e0,0x192b6e04,0x1ad0fadb,0xc3b7d4b9,0x01fa1246,0xe903e4e6,0xd9014f01,0x33f62b0f,0xffac3128,0xd929b9fc,0xf10716ee,0xce0b19f9,0x15d4fa14,0xf02a01eb,0x1721dab4,0x5854f847,0xee4bdb1a,0xb4fae415,0xb4ed1809,0x0cfe05e8,0x3bfb25e5,0xfd0b09f2,0x020a1928,0xeefc2cfc,0x0e2cdff5,0xebffed0f,0xd0bfe318,0xfa1ed615,0x6713d101,0x0edd2259,0xe9383f11,0x0acdd6d0,0xee4ab6ed,0xd5f0defb,0xfcf0e8eb,0x0aee1af4,0xfcc0ec3e,0xff07f10a,0x0204e901,0xe6f1db68,0xf8ead210,0x49c4f9e3,0x15103223,0xaf183705,0x303bdf11,0xdd1af4ed,0x090fa8d8,0x383efedd,0xf6090805,0xfcebba41,0xe4e1f8fe,0x13f3eddb,0xf701e6f0,0xf4e81fbd,0x02fe0dd3,0xf4eafbf7,0x0e04dcf8,0xf8f5a4dc,0x07dbec12,0xe41fbb36,0xe20ef0de,0xfd21de03,0x0ce2db06,0xcfc921ef,0xe4302a23,0x19ee0ff6,0x08eeddc2,0x37150e15,0xff2b0959,0xee22d7fa,0x15ea29ea,0x1406d807,0x07eaebd6,0x34f5e90d,0x190a3a0a,0xf0fada15,0xf1fc17fd,0xdc0504f5,0x38200123,0x3116ed29,0xc821faad,0x88f7e12e,0x21f30ce7,0x02c6e4f6,0xcedf05de,0x97e6dfe0,0x17ff1700,0xe6e805ff,0xd707193c,0x4cf910d4,0x2e2c0bc9,0x0aebe7dd,0xaf6bdbfc,0xcdc32ac5,0xfbeff627,0xadf02014,0xcdbbdf4e,0xecf1f501,0x20e11ffc,0xf7ee080b,0xe2f1df13,0xf30d01f6,0xb90818f8,0x032b0c42,0xdb00fc13,0xcd0bb7e6,0x08031edd,0x370ce03e,0x0a00fb0f,0xd4fed11a,0x04241cd0,0xbf245deb,0xc90019e5,0xce10c02b,0xf807b100,0xe52bf513,0xf20018c5,0xeffbfeda,0x0617109a,0xe408fde5,0xd300dfef,0xf9f3c703,0xf525c600,0x2d36f901,0x3600203c,0x0331e11d,0x0fddf1f0,0xf809fa9e,0x090033e7,0xe8fdea13,0x02c2ecee,0x03160b18,0x44001ae9,0x03081302,0xc5fc55f5,0x393d1b32,0x0200ff4d,0x43e9ecfb,0xe93824d2,0xf7d522f9,0x2000dcf3,0xcaecff05,0x4d3c0e01,0xe6d7ed22,0xf200e4ed,0x0b46c2d1,0x0b16ef05,0x11e824cb,0x2a00f721,0x0dd9f1fa,0x13f302f9,0x013ece16,0x050001f2,0x05ddff07,0x04421edf,0xb704ffd2,0x3000e9d9,0x07dafbf1,0x1dbdf9ea,0x01c10e0c,0x0400261e,0x431d3db5,0x220b16ef,0xf2b40504,0xf70006ff,0x1bd006d7,0x12bcf42f,0xe9fde42a,0xb7ee010b,0x102e1adf,0xe6e103fb,0xcffd1fd0,0x0e1e03ed,0xbc1ddb19,0x12f61c2e,0x02f2185f,0xecd5e8f1,0x06cee11a,0xf61bd3cc,0x03cb020a,0x111a0009,0xfecc1ac3,0x03fd0ffa,0xfee8f10f,0x082ca0e0,0x0818c2cf,0x2af031fb,0xfe180be1,0xbe14f2e7,0xdafc1cf1,0xcef6ee08,0x2a0efbf9,0xf8f21c04,0xcd0af7d3,0xf2ebe6ff,0xc70134ed,0xdec2c169,0xf21af416,0xdb142040,0x6127cae7,0x0914fbf7,0xef752401,0x010fc205,0xfee9e426,0xfcbff41c,0xff020ff7,0x1c4742df,0x5720dc22,0xebdbf3ef,0xee78dfd7,0xfddaef04,0x1dcef0d7,0xbb0ceef0,0xe63f02e6,0x27efef0b,0x08f6ddbf,0xb4f10e08,0xf0d403e7,0x18f226fe,0x3de0e0d9,0xab02270d,0xfb0d2add,0xd32af432,0x10f6081b,0xfe5b0322,0x1b69ebfb,0xeddff90c,0x141d22f9,0xfc131842,0xec1f02fc,0xe7050728,0x07e45a04,0xd512e807,0x169fd83a,0x11dbdeec,0xed0e0356,0x1aea2dfd,0x1503ee37,0x76f2db00,0x03d629d1,0x10f4211a,0x29f6ff22,0xeb1a101c,0xddf5161b,0x38f5ebd9,0xc70de01a,0xda20cede,0xffa9f512,0xed05eef9,0xf303e3fc,0x191adc02,0x6a1935e1,0x37292ff9,0xf930eb09,0xf5f9eefb,0x150926eb,0x182dde24,0xb91cfee8,0x0efee4ea,0xd2080d2e,0x0f29fa0c,0x119a072f,0x2aef0dfc,0xff2c1d32,0x2e07e40c,0x29e50cd5,0x09fc1401,0xec141d0f,0xfa3adbf2,0x341d1fc0,0x220a044a,0x061118db,0x35c641a9,0x1cfb21b8,0x07ee1209,0xf50704eb,0xfffb2b1b,0x0ccfd6ed,0xee1aeb10,0x101019fe,0xf11e25ef,0xd4e8fed3,0xdd572a42,0x10e031d0,0xf1caf7a6,0xe9f34604,0xf70a0c00,0x2a1ef23b,0x473e4bba,0xf1d0e8ee,0xebdf04f8,0xd9ecf7f8,0xe71fe109,0x032c39fb,0xf5090004,0x0bca2603,0x2bd41df9,0xd3fe5af4,0xfa0c001b,0x1beb1a15,0x0134e1cf,0x34cd430e,0xb81800d9,0xe5b752fe,0xd71044cf,0x01ebd2d6,0x07e400f4,0xfdb50904,0x1bcfda39,0x2beedaf0,0xa81000b3,0x24c722f6,0xf6ede404,0x21160014,0xe907001a,0xc2e5cdca,0xd7e1032e,0xd4ddeac8,0x1fe60010,0x4115fdf8,0xe9e0eedc,0x4fd99f13,0xeb2100c7,0xefe21217,0xfa42e6fd,0x17f9272c,0xf40f00c0,0x480a1407,0x56e505f1,0xd4175302,0x313c00ef,0xfc1416fc,0x17c906f9,0xc7eae422,0xefd900b7,0x10de1f05,0x35080fd0,0xf90feef8,0xf6f200f9,0xf3071fe8,0x0beb0823,0xc9eaf233,0x012f00de,0x02ddc8e9,0xd93718d2,0x0ee700e9,0x261800fb,0xcdeff6b3,0xf506e9d1,0xf1cbe0fd,0xe1d5000a,0x480805f1,0xca2accd7,0x4a36e81e,0x030500f9,0x042ded17,0x131ae804,0xdb2811fd,0xf7321100,0xf32e002d,0x04f92106,0x0cf000e1,0xe41e41df,0xffea0041,0xfeffeaaa,0x0ff200d7,0x4be10753,0x5ff000f3,0xe6fae10d,0xf4ca00e5,0x080811e8,0xdaf200bd,0x37f690f2,0x500000d1,0xfd0712e1,0xf9f10025,0xe5b0e207,0x02b00007,0xed09db02,0x002c00d2,0x0afd39f4,0x4eef00d7,0xdcd9ff0a,0x37ec00f4,0xf2ddf9f8,0xfb2200bc,0x0a2256d3,0xc1f300fa,0x25440809,0xf8db0030,0x0a244707,0xf14a001b,0xcae62115,0xedfe00f0,0x38f5eee3,0xfd2100cd,0xf61309fc,0xc80b0090,0xd3bbf145,0x311c00ac,0xf1c6ff2c,0x19dc00fb,0x05e1fef9,0x2ef50003,0xe1fff802,0xe50d00f6,0xd7ef2419,0xfbec002b,0xec02e109,0x030000eb,0xef1000f0,0xef0300e1,0x161e11d2,0xe42700e4,0x30f22801,0x0db40004,0x14ff1bf8,0x0e0f0022,0xdcefd5fe,0x00ee00de,0x0c071402,0xac0100eb,0xf903fe08,0xdafcfdfe,0x4631ead3,0x15000008,0xe10ecadc,0xe71fbd08,0x16f8c3eb,0xf4eb0030,0x6042fc37,0x0dfe11e2,0x19e5d5fd,0xbe4700da,0xf40dfc22,0xd40213f0,0xd241eefd,0x1a0d0026,0xeaf20dff,0xec08f61e,0x0a11e91a,0x950c00b4,0xffe0141d,0xf821f202,0xd4d20e17,0xf10c0026,0xfc0a0319,0xdaff3b2b,0xf7edcb09,0x280d000f,0xe1d806c5,0xd6f5e30a,0x03ec371a,0xbfcf00c1,0x0eee04f9,0xd0d41646,0x2ce0dcbd,0xf3dd000a,0xdc0ff4da,0x24ec1cf4,0x20dde70e,0x060000f8,0x435e0545,0x12c3fdad,0x410803a2,0xf52800a2,0x00ea091a,0xe0ff35f4,0x1108f1f7,0xf91e0000,0x08f84813,0xdbf040c4,0xffe004f2,0x1bea00eb,0xede718f7,0xe4f7ee01,0x2f11cce9,0x2cf600e5,0xfcd12c12,0xfcea1a2f,0x310a1a05,0xde2c00fc,0xf90f3502,0x21f7e3fe,0xcf0aff2e,0x09f000ee,0xfbcc2c0c,0x19fe231f,0x3553e6dd,0xc6cdfbf5,0xdabb61d3,0x07cd12b6,0xfe2505d4,0xfbf5fcb6,0xf9b3e9f0,0x0c1efddf,0xbbde132f,0x30e8d907,0x0bea120c,0x1af70415,0x0fe03ff2,0x251a1500,0xfa09fa14,0x12e41619,0xadee05d4,0x21959ae5,0xd710f6ca,0xdfe21823,0xf7e12707,0xde0fe031,0x1fed240a,0x0312ecff,0x08380e04,0x15ef14c2,0x13a2ead9,0xfccc19e3,0xf0f1c9e7,0xf702d02d,0x2b1c5cf8,0x0a2aba03,0x063323ef,0x24fedeed,0x67eeffdd,0x13060e1c,0xf41afbd9,0xfcd309eb,0xd51b1bed,0x0b62e48f,0xd5662b29,0xa9c9efd6,0x1ef72cdc,0xcf0d14e2,0x050411e2,0xcf0fdbf6,0x1d00dc27,0x11f90816,0xfb0cfd01,0x0bfe1be0,0x21eb0020,0x55edf240,0xc5f52dd0,0xf0fc29bc,0x0234e8f1,0xcc1ae221,0xfddffd19,0x40fefce1,0xe216fb12,0xf6fd370e,0xff0c400a,0x18defbf5,0x1d2200f4,0x08184500,0x00090629,0xfbe41ee7,0xf5100008,0x4ad52600,0xded5f5d7,0xe9f0e023,0xd5f8000c,0x0dcd2a00,0x33b0c013,0x4126001c,0x0c000013,0xc8cf0600,0x131ff00e,0xe9df03e5,0x0bfe00e0,0x0f0eee00,0xf5bcd6da,0xe4dc1209,0xeb0c0020,0xba081800,0xe9ea0fe8,0x062e2ecb,0x08d600e2,0xfa4e2100,0x403105f4,0x1a03dcf5,0x2a1800f3,0x07e90c00,0xf2cf2414,0xc30dfa0b,0x07580013,0x2f253000,0xd3141b2a,0x29334022,0x264b0024,0x02edf800,0xee0c00ed,0xef10e91b,0xaa080024,0x38b9bc00,0x16ece91f,0x6113193c,0xc52a00ff,0x25f6bf00,0x03ebe720,0xf63c090a,0xec070013,0x21111e00,0x3f25f4c1,0x0d120eec,0xf614000a,0x03da1600,0xeb2119ab,0xdffbfa01,0xee4100d2,0xdffcf700,0xee0d1fdc,0x1e19f8fd,0xea160007,0xc50e1800,0xdffefb05,0x04e5a2f3,0x0a430718,0xf3e8e9d2,0xca1000d8,0xee071407,0xf8f02337,0x0007ef1a,0xd1de0a42,0x2dfce5da,0xf0452f08,0x0d191aff,0xfe052201,0x31c6f5ed,0xf508e00f,0xf4ed1c19,0xfdf9e6e9,0xdb180813,0x10f9ec0a,0x01fd000b,0xdbe52cfa,0x070504b8,0xb8f827d8,0xc90324fb,0x08df02f2,0xdffcf30b,0xffdc25ea,0x004004c9,0x11190e19,0x2912280f,0x341006f9,0x23f02207,0xfa1cdde2,0xfb171ad9,0xe7124643,0xfcf7bf9e,0x4f4043ed,0xfa4102da,0x1dfffde3,0xd714d2b1,0x0d470209,0xf0bd5bd0,0xe0df212e,0x26dfb416,0xff23da52,0xfd2c1edc,0xe82ddefc,0xe3fd20ec,0xde3208ed,0x2a1a0de6,0x3416091f,0x0dfa0c1c,0x0b00f6f8,0x10f2050c,0x065c4aec,0xd6b3f607,0xf61b2db6,0xe6052a10,0x4415ef0a,0x0223d718,0x08130708,0x18e4f1f3,0x31f2fa1f,0xfe06edeb,0x0700300d,0xfef2eb07,0xc2ff0cee,0x030ec706,0x0b0e0766,0xefdece00,0xd1f2ccd2,0x17dbd4fc,0x00eebd3d,0xd9fb0f00,0xfdf73ee0,0x39f70216,0xf1d8ed29,0xc1dddf00,0xcaea1bea,0xeae6c9fe,0x26e93726,0x03d9b300,0x0a282df9,0xdecce1fe,0x12fcf20c,0x0aeaf700,0x02e6f2d6,0xebf5051d,0xe71bebe1,0x220ad900,0x0c310005,0xe6e41e29,0x293c2511,0x3fee0800,0xd0350500,0xf12ee110,0xe7d4fc14,0x280b0500,0x1e00da11,0x170c14b8,0xe4e5dcf9,0x061e1b00,0x15e7f025,0x09f03f05,0x1df3fee5,0x1407d900,0x07d4e9de,0xf609eceb,0xd1a0b3e7,0xe9e90500,0xe7fc6d23,0x1ff131cc,0x15061d1c,0x322e0600,0x12a537df,0x4cfcd4fa,0xecf4cbe0,0xd8f3af00,0xd6e214f5,0xe6f7e4f7,0xeee1f602,0x02e7f200,0x0af204e3,0xfe19fbf1,0xeefefbed,0x0f040500,0x0ec3eb4f,0xecdf3c0f,0x0d0a380f,0x10e0d700,0xd8bc16e7,0x2f3346f6,0xf067e546,0xfbccffd6,0xefe5e903,0x32fd0252,0x0da231c6,0x121eeb20,0x02c1c9fa,0xcf21fbdc,0x3d2fd824,0x181330e6,0xfc0c24d5,0x2330f50a,0x1818ec11,0x01f9e803,0x62f5e4f0,0xf8e232c5,0xe7fe05e9,0xde13e11d,0x36b83008,0xbffef8fd,0xe6242538,0xf9430acb,0x04f211e1,0x0201edcc,0xfa11e5e1,0xf1ff1713,0xf6e001eb,0x0916d319,0x18ec1b1e,0x04e5f01a,0xff230425,0xc6dc08ec,0x04120cff,0x0bf2f1db,0xf2f1d809,0xe5461bef,0x0d05ed24,0x53045228,0x0800a314,0xd0c96ff9,0x3b07d018,0xdd0ae902,0xe7ef0608,0xeddd06e9,0x07d713f7,0xe9c329f0,0x10cebe0c,0x0ffd022c,0x38b92cbc,0x14422fe7,0xf674ebd5,0xebef04ef,0xfafa2221,0xe7140df2,0xfa14fe0f,0xf717df0a,0x2775e1ec,0x150a1d16,0x07e1dd23,0x07e00bb7,0x0b1df0e6,0x3a0e1bc2,0x1c23e9c5,0x2c1fe2eb,0xdb0adbb5,0x46f1e10e,0xf4fbc8d9,0xef020ccf,0x17e44ace,0x17bd1300,0xb04554e5,0xcce412b6,0x03ff47f2,0x4fbcfcec,0xfb163a14,0x35e7e9ef,0xce4bd1cc,0x3d0dfee7,0x12fdfdd4,0xdfee0ae6,0xc2e3ffff,0x140cf329,0x26fef4b7,0x0e0ee41b,0xf3e50ec9,0xdaf208c7,0xe4f9c7e5,0x26ca2fbb,0xeac53d08,0xfa1eb902,0xc9ba1eea,0xea20e329,0xef11ff17,0x241101db,0xd72ad21f,0x1c2afd0b,0xd3df03c4,0x00f623e1,0x07410a03,0x5de0d7be,0x01d73daa,0x0bd71ce3,0x2ff30df9,0x30bce436,0xde151321,0xdd0606e6,0xf7ec0c06,0xece024ed,0xfcf81331,0x001009b3,0xcaf617e1,0x3eea1ee9,0x3f0ecf36,0x6ac3e9e6,0x03f04677,0x190df6e4,0xfbf1050a,0xf2f9d4fd,0x03190a15,0xd7f1ed13,0x1519e626,0xe1cb1410,0x36feeff0,0x0aef35df,0x08071826,0xdf5b20f0,0xdb24c5e5,0x11c9f61c,0x1b00cc14,0x17aed1f4,0x9b501bfd,0x13d42409,0x4300b11f,0x20130b17,0xbbd9f803,0x0db7e9fb,0xf800cbfd,0xf4141413,0x00fd0df8,0xcdf1bfee,0xc10014fb,0x17d7e6fb,0xcfc61104,0x01ffd1f9,0x0d0026e6,0xf5e7e2a4,0xf9ede9e2,0xe30ed40f,0xed001fcd,0xdce703dd,0x1dd9cbd9,0xf9da370a,0xca000dfc,0xc6c4d944,0xe1f2f40b,0x0801182e,0xec00ff0f,0x220c030e,0xe534f710,0x010d0c01,0xf800f50d,0xe920f1dc,0xd7ee07eb,0xb5ad05f3,0x140027fb,0x0ad81a0a,0x06f5d30b,0x230ef9f9,0x1100fb01,0x4a0a22f8,0xfff2c114,0x0e0406e3,0xe200ea13,0x03151220,0xf42afe0c,0xeb392137,0x0700eff6,0xdbfdece4,0xebfdf7cd,0xfa150c05,0x1300eb05,0xf4e9e218,0xee0514f3,0xdef128d8,0x0600c6d9,0x17e128f5,0xefd31c17,0x2fd4ffa7,0xef002e63,0x27281b34,0xed2df5ed,0xe8de20e8,0xf7f8e1ea,0xe8ffb6ff,0xedb301f9,0xb2d31eea,0xb9311320,0xfca5dc40,0x0e33e9f9,0xb2c6cef7,0x086617a3,0xd01e0503,0x0debbdf2,0x0bffcbbc,0xe60bd8eb,0xed1effe3,0x0bcbf209,0x00ffe2f4,0xe50cf8ed,0x25050bed,0xab2cc8f6,0x3521e2da,0x10ede905,0xa9fcf3d9,0xe5b8ef08,0x291125f7,0xfdd0f61b,0xf5fdd8f2,0xfee6db50,0xedec142b,0xfb4feaf0,0x2aeb0be9,0xe908c717,0xd2100d1c,0xeaf53124,0x00cd0e27,0x4123d2c7,0xcdce010e,0xc307f043,0xb097051b,0xb136e9be,0x64c10021,0x0f1a1e4f,0x060c18d7,0xf6d1d71f,0x1624261b,0xf9da0dd1,0xce0814ec,0x0cd815dd,0xeaf1cc2f,0x2dcbfda8,0xd31720f5,0xf8071f07,0xf7f921fa,0xf600cc32,0xf8efe303,0xfa0fdff8,0x1bcee112,0xf204f6f5,0xe4ea0dcd,0xb9de1019,0x171e1af1,0x03e2fae0,0x33e30d61,0xe2f2efd2,0x24ee02ec,0xc5131933,0x0cfdfd41,0x1ac60915,0xcdcd3a0c,0xffc411ec,0xcf0c1e1c,0xbee350fc,0x32d5fa17,0x02fa36e1,0x1c9dd637,0x00ea004e,0x1513e5ae,0xaa16191d,0xdb04d21c,0x0dddfdc9,0x16f2bf08,0xf9ed1d13,0xe2cbff0b,0xeb04d9dc,0x09080d27,0xf1e20cfa,0xb7edcedd,0x04e0c0f1,0x0b18dbfd,0x0de91021,0xf7e7acf8,0xfae4d6ee,0x2f0d00ea,0xfff3252b,0xf4261311,0xd8e11c2e,0xedfdfc2a,0x0ff1202a,0xd6fd05fb,0xf332c923,0xda022d24,0xb655e101,0x4ae742fa,0x14160af7,0xbac92925,0xbd35d0d7,0xdae42e00,0xf20d0a14,0x0f14e51c,0xdf05080b,0xfcecf00a,0x33eedaf2,0xcaf10df6,0x08f7d10d,0x2ad4fb00,0xf4f7dffc,0x13dcfd08,0xf107e824,0xfe22f510,0xf017eee4,0x09dc0de5,0xf0f3fce4,0xfcd3090d,0xfe2301f7,0x102acafa,0x0530e2fe,0xec0bd1cd,0xf4f800d6,0x15f21b0a,0xe1ea0ceb,0x16e41f04,0xdd28001b,0x1807171b,0xd6d1cd2a,0x3bff3fc6,0x1c05000a,0x021fedab,0xbff1f8d9,0xd2b6e110,0xd10d00e2,0xf4dd020b,0x38e2dc14,0x0b0ddf9f,0xf2f800e1,0x18d60249,0xfb1418ee,0x47251b2d,0xede000fd,0x18df98f7,0x16e997d7,0xbcf8d506,0xd2f600db,0x08fdf10b,0xf421fff3,0xc12b15f9,0x0f150019,0xf5f806b3,0x06d91607,0x0c2bfef4,0x05220001,0x1726f816,0x0210b8ea,0x052312f9,0x1bbb002f,0xdbf726df,0xd0f92cb2,0x2bd3d4d9,0xec0d000d,0x0aee1b39,0x062dd61d,0x0abe09c0,0xfa140003,0x02f911ea,0x17f8e8fb,0xe1e3e61a,0x076500ee,0xb4f8e844,0x9de3066b,0xf9aa290b,0xd71300c8,0x0ed5edfd,0xf6f102fa,0x0ce3091a,0x1bed00f6,0xfffe13d4,0x1dfa11d3,0x0bd5d7f0,0x0f0d0029,0x460ce1fe,0xeef7d9fd,0xecfded37,0xf826d41b,0x0b2f0039,0x42d1e1f7,0xf4e7002e,0xd8444214,0x122000d6,0x2ff2f236,0x1ee100ec,0xe910f615,0xce2c0027,0xefffe6f5,0xba2c0025,0x00e68de1,0xe1e900e4,0x38e3d5ed,0x03bb001c,0x0c23df05,0xfb170000,0x54f601ff,0xf4df00ff,0xcedd1bc0,0xb9e100d4,0x04d80bd8,0x0cf200ef,0xe1e2c1eb,0x06ff0032,0x0dd6fcf5,0x0dc700fc,0x1a201300,0x0cfe0031,0x0adfe4e3,0xf7f700c6,0x11162ea1,0xdec3000d,0xfd11008f,0x090d0000,0xec4706ec,0x9ce100b1,0x2433fef9,0xd3f50033,0xdf1349df,0x090c0004,0x343aef22,0x031a0039,0xeed3fad3,0xdcf10003,0xe8121cda,0x18fa00e9,0x07192714,0x07e4001a,0x54dce703,0x0a200007,0x0d081bf3,0xe9110001,0x0ce701fb,0x05d40019,0xf5f2e82c,0x12cc000e,0x09ffd72a,0xe7280037,0xd0cb13c7,0x061d0005,0xb8130a09,0xe519000c,0xfefef103,0x1d1c072b,0xde07072e,0xe30100f4,0x3043c140,0xf0291e42,0xb540bfe3,0xecf90010,0x09f1f9f9,0x0b6a1115,0x373837f1,0x0cfd0014,0xe7fa1aef,0xdaddf8f1,0x230907e4,0xf91400f2,0xe8dedce8,0xf7f0eb10,0x200300e8,0xf2d900de,0xb3b9f4c7,0xb9f51ae2,0xe61620f4,0xf9eb00e6,0xe0ecf8d3,0xf6dddf0e,0x27f4142d,0xd60a000a,0xeeff1118,0xf7091d0b,0xcdc51917,0x090c0019,0xa9adfebb,0xd9edf5ff,0xf7e5ca00,0x1bbc000a,0x25e9eeea,0xe1531320,0xeefa1fe7,0x09d60026,0x01dcf403,0xd2f9ed2e,0xeb3e121c,0x074400ff,0xe1cf14eb,0xc8d2251f,0xe1d51aec,0x01d50000,0xfb00b50b,0xe05bf143,0x03f1ee38,0xeb050000,0xedecf2e9,0xe610061d,0xfbed0707,0xcae400d6,0x2c061f0f,0x03f8f3d4,0xf6ff2fec,0x09160009,0xd1de11e9,0xedf6a949,0x03fffce7,0x00040045,0x1018e2d7,0x002605e9,0xfa000309,0x31e0eae2,0x0e2a240c,0x29e343f4,0x13d46208,0xfd080809,0x24050b10,0x29101211,0xdd3ec01e,0xc6eff0f0,0x1f192025,0x46ec2607,0xfdff09dd,0x09efecd8,0xe2ef1606,0x05101022,0x0b05e604,0x59f7fa18,0xed01e010,0xeab7e50e,0x022002bc,0xffe70138,0xa817e60c,0xccd2130c,0xeae9e3d6,0x04dfd50f,0x0a0b1fee,0xf5fa2219,0xf90c2c05,0xfafc14ea,0x1bf9dbe8,0xe79cfe03,0xfd36edaa,0xef021b00,0xb3e0ee0c,0x42ced724,0x5efcd2d6,0xf61a34e5,0xe4e3edf9,