uint32_t bias[7952] = {0xc9a,0x1f1,0xbf4,0x1659,0xef7,0x5d2,0x180a,0xfffffc07,0xd2e,0x132a,0xe1c,0xfffffe76,0x145,0xdf4,0x35b,0x62f,0xe4c,0x44,0x114,0x7fb,0x39,0x53f,0xffffff76,0xffffffe4,0x556,0xf4,0x5a5,0xffffffb5,0x95d,0x894,0x2cb,0x364,0x434,0xfffffff8,0x533,0xb13,0x27b,0x4cd,0x54a,0xfffffb9d,0xbb4,0x264,0x1bb,0x393,0x1209,0x1d1,0xcc9,0x913,0x3b,0x3d9,0xffffffdb,0xfffffe56,0xffffffec,0x23c,0x4,0xd6,0xf,0xffffffa1,0x2,0xfffffff9,0x9,0x78,0x3bc,0x90,0xfffffffc,0x12e,0x530,0xfffffffe,0x240,0xfffffffe,0x2f88,0x436,0x2b4,0xd9c,0x3c2,0x136,0x10,0x392,0x54c,0x87,0xb5,0x463,0x306,0x53,0xfffffe6c,0x214,0x376,0xffffffe4,0xffffffea,0x3,0xffffffaf,0x428,0x30,0x188,0x58,0xfffffffd,0x1224,0xfffffe27,0x7d4,0xa27,0xfffffa02,0xfffffd06,0x4f7,0xffffff41,0x3fc,0xfffff3f0,0xb68,0xfffff9b8,0xfffff5b1,0xfffffc3e,0xf1,0xfffff42d,0x262,0x343,0xe99,0x72d,0xfffffd2d,0x107,0x5b9,0x3cd8,0xa0b,0x8b8,0xc5,0xa6b,0xfffffd23,0x9b1,0x71b,0x7aa,0xffffff82,0x57d,0x48b,0x4d5,0x6c3,0x1374,0x407,0x16a,0x717,0x78d,0x952,0x36c,0xdf6,0x778,0x400,0xafa,0x113d,0x11bb,0xffffff20,0x4da,0xa1d,0x2d3,0xa3d,0x136,0xfffffa3b,0xfffff93d,0xbc2,0x4a5,0xffffffa2,0x823,0x570,0xb0e,0x34,0x273,0xd52,0x260,0x993,0x228,0x29a,0xffffff38,0x46d,0xde,0x3ea,0x7a5,0x1760,0xcaa,0x3aa,0x2fc,0x2b8,0xffffffae,0xd1,0x3487,0x693,0x4ed,0x14d,0xffffff3a,0x11d3,0x26d,0x8bd,0xfffff34a,0x496,0x34d,0xfffffe2b,0x2e6,0xa74,0x133,0x758,0x1cd,0x4d0,0x210,0xe16,0xdd4,0x338,0xfffffd45,0xfffffb4c,0xa74,0x4d1,0x9ff,0x811,0xd56,0x65c,0x8a,0xffffffbe,0xffffff96,0x43d,0xffffff62,0xd,0x445,0xffffff89,0xffffffda,0x800,0xd,0x8f,0xffffffd2,0x17b,0x18,0xffffffe5,0x7e1,0xfffffffb,0xffffff71,0xffffffe6,0x1c,0xa77,0x4e2,0xffffff02,0x7f,0xffffffd1,0xffffffd7,0x16,0x1f,0x3d,0xffffffc6,0xffffffb9,0xffffffc2,0x558,0x83,0x284,0x410,0x2f4,0x792,0x1d,0xffffffac,0x22,0x3d,0xe15,0x32,0xfffffed6,0xffffffa7,0xfffffff5,0xf9,0xffffffd9,0xffffffc7,0xffffffed,0xfa,0x7ee,0x357,0x25,0xfffffee5,0xa,0x18,0x2e,0xffffffda,0xffffff86,0x6ba,0x7,0x5f2,0x18f,0x8e,0x6,0xfffffe85,0xffffff23,0x83,0xffffffe6,0xc8,0x435,0xffffffdc,0xffffff46,0xffffffdb,0x5,0x7,0xffffff59,0xfffffe6c,0x5e,0xe,0x8e,0x31,0xffffff7b,0xfffffe3f,0xffffff41,0x520,0x75,0xfffffff2,0xfffffffa,0x2d0,0x22,0xffffffc0,0xfffff7dc,0x223,0x107b,0xffffff7c,0x18b6,0xfffff039,0xfffff8c1,0xfffffeb1,0x527,0x11fd,0xfffffd70,0xfffffc0c,0xfffff8c5,0xffffea21,0xfffffcbf,0xe97,0x3bd8,0x140c,0x4a9,0xfffffb96,0xe50,0xc22,0x230,0x2deb,0xfffffee7,0x14fd,0xc4d,0xa32,0xec6,0xfffff4e4,0xfffffc02,0xfffff235,0xfffffb9e,0xf2c,0x6b8,0x299,0x271c,0x11b6,0x15c6,0xfffff73a,0x3d,0xde8,0x7f9,0xfffff351,0x1352,0x906,0x6ba,0xfffff9be,0xfffffd5f,0x1674,0xfffffda7,0x262c,0x27ea,0xfffffe84,0x774,0x1173,0x87d,0xfffff4d2,0x22b2,0x2043,0x62a,0x1364,0xfaf,0xc75,0xffffff65,0xd5f,0x109,0x2de,0xffffff8e,0x83b,0xfffffe7f,0xfffffb39,0xcd,0xffffffc7,0x3cb,0x16c,0x68b,0xfffffcac,0x860,0xfffffb60,0x18f,0x1bc0,0x9a2,0xda1,0x14f1,0xb6a,0x601,0x502,0xfffffa68,0x196d,0x2f7a,0xfffffd90,0xfffffb7c,0x5b1,0xfffffdbc,0xfffff33c,0x4c1c,0xfffffe8a,0x64d,0xfffffb9e,0x2e5,0x8a7,0xfffff763,0xfffff614,0xfffffa30,0xfffffa9d,0xfffffbaa,0x13c7,0x1564,0x581,0x6c0,0xfffff39c,0xffffffde,0xa59,0x2939,0x44,0x724,0xfffffff9,0x199,0xffffff80,0xfffffebb,0x80f,0xffffff58,0x4a0,0x57c,0x6b,0x3e,0xb,0x38,0xfffffd9f,0x1000,0xe0f,0xfffffff7,0xffffff63,0xffffff83,0x15,0x92,0xfffff7fc,0x98f,0x5b,0xfffff85b,0xffffffc0,0x48,0xfffffefb,0x793,0xffffffbd,0x42,0x10,0xffffff73,0x43,0xc12,0x62,0xd17,0x1a,0xffffff6b,0x39c,0x1288,0xffffffda,0x3c,0xfffffda9,0xfffffeb4,0xffffffed,0xe,0x2cd4,0x75,0x9e,0xfffffcb3,0x61,0x56b,0xcb8,0x43,0xef8,0x1904,0xffffff96,0xc20,0xffffffeb,0x1631,0x1f,0x76b,0xd74,0xffffffcf,0xffffff84,0x5a1,0xffffff12,0x13,0xfffffffb,0x14,0xffffffe8,0x33,0xc22,0x675,0x17,0xffffff58,0x1096,0xd3d,0xe,0xbc3,0x4c,0x2e5,0xffffffc1,0x600,0x4d,0xffffff42,0x39,0xfffffffe,0x70e,0xc3d,0x10,0xfffff657,0x1e2d,0x11dd,0xfffff879,0xfffff22b,0xe00,0xffffefe5,0x16a1,0xffffe5d2,0xfffffaf0,0x27be,0xffffe161,0xffffedfd,0xf5e,0x757,0x8a8,0x30a,0xffffc8fb,0x176f,0xfffffe5d,0xfffffd1f,0x1494,0x3fa,0xd7f,0xfffffd9d,0xc16,0xe72,0xd2c,0x92d,0x1a53,0x11b4,0x496,0x1350,0xf85,0xb24,0x1828,0x12f0,0x145d,0x558,0xfffff91f,0x777,0x9bb,0x14d2,0xd31,0xd9e,0x152f,0xd19,0x10b9,0xffffff74,0x15dd,0x1017,0xc29,0xfe2,0xfffff9af,0x9ba,0x186d,0x4257,0x12cf,0xf8e,0x19a3,0x18e1,0x176b,0xf67,0xfffff3b3,0xce3,0xfffffef8,0x39e,0x8,0x12b1,0x7c5,0xffffc023,0x2e36,0x11,0xed9,0xd43,0x188b,0xfffffd38,0x13fc,0x1676,0x1143,0xfffffc9c,0x150a,0xfffffe98,0x115c,0x711,0xb3,0x1106,0x1f99,0xde2,0xdec,0x22f,0xfffffcd6,0x7ab1,0x581,0xfffffc5d,0x918,0x47a,0x485,0x11b,0xb8f,0x1109,0xd6c,0xffffff43,0xd7f,0xd38,0xd9a,0x173c,0x11d4,0x371a,0x51,0x1aa3,0x1bf,0x182f,0x4d0,0x4e,0x18be,0x567,0x1066,0xcff,0xa14,0x1af,0xffffffee,0x144,0xffffffcf,0xfffffd69,0xfffffeb8,0x9cb,0xfffffcef,0xffffffac,0xffffffe9,0xfffffff3,0xffffff9c,0xa0,0x6,0xffffeb27,0x77d,0xfffffe88,0xfffffece,0x49e,0x33e,0xffffffbf,0x3e9,0xffffff52,0xc,0xefd,0xfffffefe,0x1e2,0x57,0xffffff63,0x54e,0xca,0xffffffba,0xfffffdde,0xffffffe9,0xfffffe86,0x2f,0xfffff7ef,0xffffff96,0x6bd,0xfffffc7c,0xffffff42,0x1044,0xfffff806,0xfffffe38,0xffffff2a,0x813,0x5be,0xae3,0xfffffdef,0xffffff60,0xffffff4b,0x53,0xfffffff4,0xffffff88,0xc9,0xffffffd5,0xfffff877,0xfffffe86,0x141,0x6e,0xac3,0xfffff819,0xffffff9f,0xffffff79,0x7e2,0xfffffbf5,0xfffff498,0xd0e,0xfffffb66,0x11be,0x1a7,0xfffffedb,0x7cf,0xd7b,0x1e5,0xfffffffa,0xffffffa0,0xffffff34,0xfffffbda,0x2,0x7,0xe66,0xc3,0xd,0x147,0x848,0xffffff3f,0xfffff89f,0x19d6,0x70c,0x184e,0xffffed2e,0xb9,0xffffdb0a,0xcd1,0xfffffcad,0xd5f,0x14ea,0x357a,0xffffed21,0x1f88,0x2d6a,0x1d1,0x5f9,0x1fb5,0xd4f,0x2037,0x421,0x118,0x212b,0x15c,0xfffffba7,0xffffffa7,0xfffffcf3,0xfffff5ac,0xa28,0x1efb,0x126b,0x715,0x16a8,0x1589,0x3e3,0x2122,0xe5a,0x16c0,0x541,0x2573,0x22c0,0xd3f,0xfffff83b,0xddd,0xfffffd02,0x170d,0xffffed8c,0x12ce,0xfffff494,0x153d,0x1323,0xce5,0x2522,0x1b19,0x288c,0x3f0,0x1582,0x27ca,0x16c6,0xfffffa08,0xfffff8fb,0x240c,0xfffff306,0xf2b,0x1a31,0x4a4c,0xdd3,0xfffffa8b,0xfffffa54,0xa6b,0xb47,0x66e,0xcdc,0xfffff544,0x1d22,0xa7d,0x222b,0x81f,0x1792,0x324,0x8d5,0x1da2,0x2954,0x459,0x795,0xfffffd29,0xc72,0x1595,0x2cc9,0x1df4,0x1fa5,0x212e,0xe52,0xfffffb8c,0x1869,0x2944,0xfffffe90,0x1051,0x15cd,0xffffff69,0x29c8,0x2896,0x11ac,0x16a7,0x13e9,0xfffffe1e,0xbdc,0x2306,0x1128,0x208d,0x4b,0xfffffc22,0x14e2,0x3be,0x99d,0x84,0xffffff8a,0x776,0xfffffc97,0x1605,0xc2a,0x13ca,0xffffff5d,0xffffffba,0x31,0xfffffe66,0xffffffd6,0xffffffef,0x1cf,0xffffffc7,0xfffff2eb,0x166,0xffffffe5,0x49,0xb58,0x1f3,0x1de,0x3c,0xfffffdf2,0xffffffcb,0xe8a,0xfffffea9,0x4e7,0xffffffab,0x18,0x556,0x349,0xa42,0xfffffea6,0xffffffd8,0xfffff512,0xffffffa4,0x97,0xfffffe98,0xffffffad,0xfffffede,0xfffffeee,0xffffff58,0xffffffe2,0x744,0xfffffeb2,0x171,0x28,0xfffffea4,0xa90,0xffffff99,0xfffffe69,0xfffffeeb,0xffffff6d,0x20,0xfffffffb,0xffffffe1,0xffffffb4,0x8dd,0xfffffff9,0xffffffbb,0xfffffcd4,0xcec,0xf0,0xfffff899,0xfffffd9f,0xfffffe99,0xffffff70,0xffffff11,0xfffffee8,0xffffff3e,0x781,0x88,0xa25,0x1b3,0xfffffe8e,0xfffffccd,0xffffff85,0xfffff9e8,0xb,0xfffffef8,0xfffffe8a,0xf2,0xffffff33,0xffffff3b,0x14b,0xfffff504,0xfffffea0,0xffffff37,0xffffff66,0xffffffe4,0xfffffc4b,0x156e,0x44,0xfffff570,0xfe4,0xfffffc81,0x8c4,0xfffff20b,0xa2c,0x1003,0xfffff107,0xfffff5d9,0x6c5,0x1acb,0xffffec2c,0x2247,0x831,0x796,0x609,0xfffffed1,0xe7a,0x735,0xfffffe77,0xfffffc9f,0x18ba,0x1c72,0x4c9,0x75f,0x1584,0xfffffbeb,0x165,0xfffff8de,0xfffffd31,0x2719,0xfffffe4b,0x55e,0x195,0xfffff067,0x257,0x348,0xffffdd47,0x8e4,0x213d,0x920,0x1112,0xe11,0x105b,0xfffff3b4,0xfffffc8e,0x1da7,0x9af,0x724,0xffffe8ae,0x6d8,0x1666,0xfffff058,0xfffffcd4,0x543,0x82be,0xffffff23,0x1171,0xfffffd04,0xa01,0xbcb,0xfffffeb5,0x188a,0x44,0x391,0xfffffe5f,0x280,0xffffff08,0x24ba,0xfffff723,0xffffff47,0x13e,0xfffff537,0xfffff7ff,0x54,0xfffffb6b,0xffffeada,0xfffff960,0x1438,0xfffff948,0xfffff83d,0x44a,0xfffff8c8,0x35c,0x130b,0x2990,0x7bb,0xcab,0x4aa,0xfffff7a2,0xfffff3d1,0xfffff6e7,0x99a,0x17a4,0xffffebac,0xfffff14e,0x239,0x333d,0xffffec99,0xffffff84,0x1071,0xfffffcb6,0xffffe8b3,0xfffff45f,0xafe,0x67,0x1644,0xffffff77,0xfffffcd7,0xffffff7d,0x248e,0x31cf,0xf9,0xc10,0xca2,0x3d,0xa5b,0xfffffd03,0x1024,0xffffff23,0x2ab2,0x1260,0x42,0xc6,0x6b6,0x5d,0xfffff90a,0x4e,0xfffffe61,0x56,0x921,0x14,0x7f,0x40c,0xfffffeee,0xfffffeab,0x163,0xc4e,0xffffffe4,0xffffffb4,0x4a5,0xffffff6b,0x4d0,0x6a,0xe90,0x15,0xfffff5d9,0xffffff79,0x1b,0x2c,0x158,0x9e2,0x43,0x1265,0x59,0x11a9,0xffffffba,0x86,0x674,0x88,0x59,0x14,0x1008,0x3a,0x13b6,0x2d,0x2e,0xd18,0x22,0x122c,0xfb,0x694,0x30,0x90,0xffffffdb,0x15ef,0xffffffac,0x1891,0x4c,0xffffff7e,0x1f74,0xda,0x7c,0x1c7,0x58,0x4a5,0x40,0x22,0x2,0x188,0x867,0xfffffffe,0x172f,0x40,0x30,0xa56,0xc6,0x79,0x1c,0x8ca,0xa16,0x7a,0x17cc,0xb0,0x22f7,0xfffffff6,0xcbb,0x408,0xfffff372,0x448,0xfff,0x1ba8,0xfffffc0c,0xffffe437,0xffffef3f,0x1a1,0xfffff841,0x30f,0xd8b,0x7d5,0xfffff3d6,0x1111,0x329,0xffffff4d,0x3b4,0xffffffd3,0x1d8e,0x158d,0xfffff1f7,0xfffffbab,0xfffff6b6,0x602,0xfffffb19,0xfffff98e,0xfffff3d3,0x1be0,0xffffebd5,0x24b,0xfffffe97,0x51b,0x11fa,0x36a,0xc94,0xe44,0x1dd4,0x1d62,0xabe,0x1328,0x13b1,0x699,0xa8,0x392,0xffff97d3,0x4c6,0x164f,0x316,0xf79,0x1b40,0x26a,0x1586,0xe1,0x189e,0x629,0xb43,0x23,0x8af,0xf05,0xfffff5ec,0x227a,0x131b,0x1c05,0x10d7,0x860,0x26c5,0xfffff985,0xfffff9ee,0x1d59,0x6ca,0x1435,0x1e58,0x1637,0x167c,0x117a,0x1900,0x171f,0x1013,0x15a0,0xfffff5db,0x1019,0x182d,0x170c,0x18b6,0x102b,0x829,0x16a4,0x1ee3,0x12af,0x8c2,0xffff10a8,0xfffffbfd,0x19b9,0xd64,0x22e1,0xb38,0x5fe,0x236e,0xfffffe08,0xaa7,0xdc7,0x73,0x704,0xfffffe09,0x1a47,0x166b,0x305,0xb79,0x347c,0x16c5,0xdd8,0x16a2,0x1d78,0xe32,0xfffffd5f,0xc04,0x122e,0x3bb,0x13ab,0xffffff50,0xad0,0x902,0x7f4,0x1329,0xfffffc4f,0x188f,0x1bde,0x11db,0x12f1,0xffffb587,0x31a,0xde0,0x23c8,0x115d,0x1a9c,0xcc7,0x3ee,0x1c52,0xcad,0x11fb,0x4f5,0xfffffc67,0x1927,0x1d3f,0xdc1,0x213a,0xc10,0x107b,0x1722,0xffffcd07,0xd2c,0x1274,0xa1d,0x17bb,0xd7a,0xfffffd7a,0x1132,0xffff5f5e,0x1061,0x6aa,0x55f,0x94e,0x118c,0x14dc,0x13f7,0x1279,0xbf,0xfba,0x676,0x5e5,0xc76,0x87e,0xbfc,0xffffbc36,0x92a,0x14b0,0x11c8,0xf47,0x402,0x1a7e,0x176b,0x46b,0x1270,0xffffea46,0xb0e,0x23aa,0x2557,0x10b8,0xfffffd26,0xca4,0xea3,0x125c,0x2f4f,0xffffbcf4,0x207a,0xfffff94b,0xffffb31b,0xfffffc51,0x54,0x17eb,0x165b,0x4f9d,0x9ca,0x1c08,0x25ee,0x161,0xd3a,0xeb0,0x55d,0x2647,0xfffff782,0xfffff621,0x6d9,0x277,0xfffff0a5,0xfffffbf2,0xfffff7ac,0x1d19,0x1d7d,0x21f5,0x1024,0x19e1,0x798,0xfffff6d7,0xffffff99,0x111d,0xffffffcb,0xffffff4f,0x158,0xffffffd4,0xfffffd0e,0xffffffd1,0x1e8,0xfffffffb,0xffffff72,0x14d,0xffffe04c,0xd80,0xfffffe7d,0xdf4,0xffffffa9,0x2f,0x444,0xee,0x1d42,0x185,0xffffffc2,0xffffff92,0x18c9,0x10ca,0x102b,0x610,0x1f,0x1173,0x117d,0xffffffbe,0x30b,0x7a2,0x2b0,0xffffff93,0xfffffc61,0xfffffcaf,0xaaa,0xa66,0xb8f,0xffffff55,0xffffff9c,0xffffff31,0xffffffe0,0x25,0xa1,0xffffff23,0x0,0x6f,0x45a,0xad8,0x7b3,0xffffffe9,0x617,0xfffffe1d,0xffffff47,0x232,0xffffbc65,0x408,0xcc8,0xffffff61,0xffffff2a,0xfffffff8,0xfffffde3,0xb4,0x1339,0xffffff29,0xc1,0xb52,0x20c,0x2750,0x7c2,0xfffffffa,0x3096,0x71,0xffffffa2,0xffffffef,0xfffff985,0xfffffb23,0xf56,0xffffff19,0xfffffff4,0xfffffc4e,0xfffffcbe,0xffffff83,0xffffffbb,0x12b1,0xf7b,0xfffffd28,0xfffffbf4,0xfffffca5,0xfffff7fa,0xfffffcb6,0x987,0xffffffff,0xffffffee,0x83b,0xfffffca3,0x4e,0xfffffecc,0xffffff7a,0xffffffa7,0xfffffe72,0xa89,0xffffff1c,0x4e5,0xffffff9d,0x468,0xfffffaba,0x861,0x94a,0xffffff6c,0xfffffe57,0xd49,0x29a,0x779,0xffffff25,0xfffffeff,0xffffff2c,0xffffffd1,0x441,0xfffffeca,0xfffff3d1,0x862,0xfffff050,0xffffffea,0x1ab4,0xffffff84,0x63,0xffffff9f,0x3,0x15d6,0xa4,0xfffffaa4,0xffffffa0,0xfffffadd,0xfffffffd,0x83,0x4c0,0xffffffa1,0xfffffcca,0xffffff7e,0xfffffff6,0x15d,0xae,0x67c,0xffffff84,0x6b1,0x13f5,0xffffff6e,0xc3,0xffffff8f,0x18b8,0x88,0xf,0x1245,0xffffffde,0xffffffa8,0xfffffa9d,0x73,0xfffff146,0xbfc,0xfffffd20,0xfffff320,0x42,0x1ff7,0xfcd,0xfffffcf4,0xfffffd56,0xffffff9a,0x7f1,0x159,0xece,0xffffff12,0xffffffe8,0x1027,0x62c,0x456,0xcd1,0xfffffd7c,0xe75,0x10,0x1370,0xec,0xe3d,0xfffffe93,0xaf,0xffffff83,0xffffffd3,0x1084,0xffffff1f,0xfffffa66,0x1a43,0x1bbf,0xeb9,0x20ab,0x768,0x187,0xfa2,0xffffc4f4,0x1506,0xfffff6fd,0xa67,0xffffe507,0x566,0xffffe3c5,0xb92,0x2d4d,0x2dbd,0x1cc,0xc7f,0xed,0x22f0,0x2158,0xffffeacd,0x13a4,0x228f,0x54e,0xfffffafd,0xbac,0xffffe29d,0xfffff67a,0x3b8,0x1696,0x1e69,0xc43,0x34b,0xffffce2d,0xfffff60b,0x1295,0x16bc,0xfffff6c8,0xfffffa4d,0xfffffe4e,0x217e,0xfffffee7,0x1f80,0xfffffc88,0x2955,0x388c,0xfffffe04,0xfc1,0x1a71,0xfffffdff,0xfffffa43,0x830,0x117,0xfffffa93,0xfffffc3c,0x1a0b,0x195e,0xaed,0x73f,0x1be4,0xfffff6fc,0x2a78,0xf02,0x93d,0xfffff9a9,0xffffb26a,0x1b93,0xffffb155,0xa64,0xfffffa63,0x814,0xffffff59,0x2,0xfffff9cd,0x15f8,0x15e9,0x3de,0x1442,0x14a2,0x1cbf,0x1d81,0xa7d,0x1284,0x2262,0x2e4,0x2153,0x1ae8,0x1c4a,0x2d7,0x5cf,0xfffff0ce,0x84,0x27f,0x2184,0x2410,0x98,0x1ef0,0xdc4,0x1898,0xfffffd12,0x1311,0x85c,0x101,0xfffffb33,0x9d,0x99b,0xfffff1ca,0x2095,0x15f1,0x1618,0xd44,0xb5b,0xec6,0xffffff41,0x16f,0xfffffb8b,0x302c,0x1632,0x95,0x2369,0xd1a,0xe72,0xd4a,0x6c0,0x1d73,0x1927,0xfffff8aa,0x508,0xfffff3fc,0x35d,0x13c2,0x80c,0x2559,0x282b,0xfffffbd3,0xfd1,0xffffac0a,0x129a,0x5b0,0x798,0xffffff63,0x1b4d,0xfffff8ae,0xffff5c4d,0xfffff45e,0xffffffe2,0xe26,0xd5,0x11b8,0x26d3,0x2e2,0xfffffc2e,0xfffff988,0xffff7b97,0xffffffe0,0x1d80,0xfffffb49,0xfffff5a1,0x249c,0x153b,0x1ae,0xffffb81b,0xc4f,0x25c,0x2772,0x17c2,0x1551,0xffffff10,0x13f3,0x1383,0x1529,0xfffffbcf,0x37e1,0xe93,0x2220,0x5af,0x8ca,0xfffff604,0x120a,0xfffff499,0x1cd,0x62d,0xfffff1b3,0x61c,0x164b,0xffffa400,0xffffff1e,0x115a,0xffffef8e,0x153,0xfffff763,0xc19,0xfffffd84,0x2586,0x196d,0xfffff663,0xfffff640,0xfffff995,0xcfe,0xffffc304,0x1a4f,0xfffffee3,0x8ab,0xffffbfc8,0xfffffdfe,0x1806,0xfffffb64,0xfffffc52,0x682,0x2055,0xfffffa46,0xfffff0ed,0xfffffe4d,0xfffff8bf,0xaa,0xfffff90b,0xad0,0xfffff5d4,0xfffff522,0x1076,0xfffff991,0xfffffae7,0x4f,0xfffffdbb,0x20,0xfffffc77,0x633,0x773,0x2f4,0xffffffb6,0x647,0xffffffa6,0x808,0x14c2,0xffffff85,0xfffffff4,0xfffffefe,0x1079,0xffffffa8,0xfffffe41,0x4b7,0x220a,0x18c6,0x23f,0xfffff3b0,0x10f2,0x8b5,0x43e,0xfffff90b,0x7d9,0xfffffea9,0x11fe,0x1aa,0x20d,0xffffffed,0xfffff5c2,0x20,0xffffff29,0x454,0x590,0xffffff7c,0x342,0x1154,0x16e,0x9c3,0xfc,0xb1,0xffffffe4,0xfffffbbc,0xd,0xfffff82a,0x90d,0x1e6,0xffffffcc,0xfffffcc5,0x8dd,0xbd0,0x99,0xffffffe9,0x2a,0xfffffeb5,0xdfe,0xffffff37,0xffffffa7,0xffffffa0,0x26,0xfffffc0c,0xfffff86f,0xfffffdb9,0xffffff27,0x498,0x1d4,0xb0f,0x1237,0xfffff771,0xffffea81,0x1dea,0xfffffe27,0xffffff44,0x4a,0xc2b,0xfffffded,0xfffffefd,0x9df,0xffffffab,0x24e,0x1865,0xfffffa2d,0x7a9,0xfffffe7a,0xfffff9c8,0x109c,0xffffff14,0xfffffe70,0xffffffce,0xfffff618,0xffffff3f,0xfffffff0,0x90,0xfffff9a7,0x5fb,0x2e2c,0xfffffeca,0xfffff9e7,0xffffff9c,0x612,0x1314,0xffffffed,0xffffff2b,0xdd5,0x5c1,0xfffff4ca,0xd0c,0xffffff2f,0xfffffe34,0xfffff5f5,0xfffffed5,0x310,0xd4,0x204f,0xffffff00,0x177,0xffffff07,0xfffffbfc,0x5ff,0xfffff5b3,0xfffff8e4,0x1000,0x711,0x1bd7,0x133,0xffffff86,0xfffffa7b,0xfffffea5,0xfffffde1,0xf1a,0xfffffdbd,0x241,0xfffffee3,0x50e,0x71,0xffffff8b,0xffffff96,0xfffffc9f,0xd7a,0x39b,0xfffffe20,0xffffff1f,0xfffffbed,0xffffff46,0xfffffbe7,0x39,0x2421,0xfffffb3a,0xffffff48,0xfffff0b2,0xfffffe16,0xffffff7d,0xffffff78,0x1a2,0xffffff0f,0x10b0,0xfffffefd,0xd48,0xfffff5f5,0xfffffba3,0xfffffe84,0x615,0x974,0xfffffca1,0xfffffa13,0xfffffc00,0x31,0x79,0x219,0xfffff736,0x184d,0x273,0xea,0x2690,0xeab,0x24,0xfffffd30,0x28,0xfffffbf9,0xd1,0x1a99,0x8,0xce3,0xffffff9e,0xfffffc5f,0x601,0xfffffe86,0xfffff7bf,0x8a9,0x7c1,0x1336,0xffffff11,0xffffe56c,0xbe9,0x617,0xfffffa9f,0x327,0xffffec02,0xfffffba8,0xffffe800,0xffffdfca,0x13f7,0xc88,0xfffff3b3,0xfffffbe2,0xffffffd9,0xffffffc0,0xfffff96f,0x625,0x1240,0xfffff93b,0xfffff8d4,0xfffff405,0xfffffd85,0xfffff2b6,0xe4,0xffffef24,0xfffff043,0xfffffc6d,0xfffff431,0x33f,0xfffff4f9,0x287f,0xfffff967,0xf94,0x1607,0xfffff5ae,0xfffff722,0x1eb3,0xffffffb0,0xc62,0x31f7,0xfffff849,0xe53,0xfffffdfc,0x325,0xffffeb74,0x856,0xfffff937,0xffff8ffb,0xfffffdba,0xfffffd00,0x147d,0x252d,0x2e,0xfffffbbc,0xfffff8a9,0xfffff6fc,0xffff8d4c,0x23f6,0x2454,0x2109,0x5ac,0xe5b,0x2ce9,0xfffff5b2,0x36cb,0xfffff206,0xfffffbb7,0x1526,0x16ad,0x22e6,0xfffff200,0xfffffbd6,0x1fbb,0xfffff729,0x268f,0x161c,0xb71,0x416,0xa77,0x1da,0xfffff9c6,0xfffff356,0x27f1,0xa4f,0x30da,0x398e,0xfffff523,0x6e0,0x113,0x206a,0xfffff627,0xfffffb3e,0xfffff6c6,0xfffff0a0,0xfffff990,0xeca,0x17c,0x25c9,0xfffff330,0x2262,0x153f,0xfffff4ed,0xfffff81f,0x24fb,0xfffff375,0x2604,0xfffff9e7,0x1435,0x3de,0xa47,0x2b65,0xffffe874,0x12ee,0x1518,0x19f9,0xffffed19,0x72,0x34b9,0xffffffb9,0xffffffad,0xbb6,0x15d,0xfffffd27,0x136d,0xffffa338,0xdca,0x131a,0x2468,0x626,0x364c,0xffffef8f,0x230b,0xfffffa44,0x1c0,0xfffff56a,0xfffffb4b,0x1b8d,0xfffffe32,0x4374,0xfffffc08,0x8e9,0xfffff23e,0x21e2,0xffffa39b,0xfffff40f,0xcab,0x331,0xf70,0x2a04,0x1b34,0xfffffa06,0x2e4,0x2a6,0xfffffe59,0xee,0xffffeb4d,0xfffff8c8,0x46e,0x2cf8,0xfffffee9,0xfffffbb1,0x1bea,0x36e6,0x26ba,0x2914,0x1161,0x27f9,0xfffffd6d,0xfffff910,0xfffff9c7,0x31d3,0xfffff2b0,0xfffff31c,0xc13,0xb7f,0xbd6,0x906,0x1769,0x77e,0x26bc,0xfffff198,0xd45,0xfffffe44,0xffffeb94,0x1ed2,0xfffffb3e,0x7ed,0x37da,0x208e,0xfffffa55,0x2dfb,0x17d,0x729,0xffff85de,0xfffff9f2,0x1973,0x13c,0x16a9,0xfffff0e4,0xfffff9df,0x1fe5,0x12f7,0xfffff72f,0x969,0xfffff93f,0x1e53,0xfffff723,0x138,0x3684,0xb8a,0x115c,0x1849,0x38f,0x203d,0x2846,0x34b0,0x2f7f,0xfffffe1d,0x23c6,0xffffffe2,0x210,0xffffff3a,0xfffffdff,0x2d,0xffffffb4,0xe9c,0xffffff87,0xffffff6f,0xfffffbf5,0xfffff9dd,0xfffffe66,0x186,0xfffff65c,0xfffffc0e,0xfffffcde,0x3fb,0xfffffe43,0x9b,0xffffffd5,0xffffde4b,0x18e,0x7ec,0xfffff4b0,0x16f7,0x35b,0xfffffe5f,0x6c,0xfffffee9,0xfffffeb7,0x71,0xffffff11,0xfffffd9e,0xfffffa8b,0xffffec24,0xfffffec3,0x26,0xfffffb77,0xaec,0x19d1,0xfffffc89,0xfffffe35,0xcc2,0x726,0xfffff838,0xdad,0xffffff8b,0x806,0x3d6,0x12c,0x1560,0xfffffd0a,0x33,0xb8,0x25,0x681,0x3de,0xfffffefc,0x234,0x3cd,0xfffffbad,0xfffffbd6,0xffffff97,0xffffff74,0xfffffc7c,0x14f3,0xffffff68,0x9fb,0x11fe,0xc8c,0xdc,0xfffffbba,0xe6c,0xffffff1b,0xffffff52,0xfffffe20,0xfffffd3f,0x551,0xfffffc63,0xcd,0x181,0xfffff67b,0xffffff46,0xffffff52,0xffffffa5,0xffffff54,0x459,0xc96,0xffffffa4,0xfffffe8b,0x35a,0x403,0x62,0xd47,0x183e,0xfffff744,0x471,0xfffffcda,0xcbb,0xbfe,0xffffff26,0xfffffeab,0x727,0x331,0x5b5,0xfffff9fe,0x5d3,0x923,0xfffffe6b,0xfffffffd,0x12c8,0x912,0xfffffcf3,0xfffff898,0xfffffd1a,0x1646,0xffffeb42,0x695,0x3c5,0xffffff63,0xfffffd0e,0xe7c,0xa35,0xfffff97c,0xfffff4f2,0xfffffc48,0xfffffe81,0x675,0x3f9,0xfffffbf5,0xfffffe53,0x10d,0xffffffd5,0x1634,0x397,0xffffff50,0x55,0xa,0xfffffe51,0x698,0xffffff85,0xfffffff3,0x8f,0xd17,0xffffffd6,0x15c4,0xfffffb1b,0x7c6,0xfffffb19,0x5c8,0x70,0xffffee9e,0xfffffef4,0x41,0xfffffa75,0xfffffc21,0x98e,0xc4f,0xffffff7c,0xfffff6b9,0x953,0xfffff9ce,0x273,0xfffffb8c,0xffffecbb,0x1306,0xfffffccd,0x39,0xc37,0xfffffd9b,0x306,0x575,0x439,0xfffffefc,0xfffffee1,0xfffffe5e,0xfffffd31,0x44,0xc3,0x3f2,0xffffffbd,0x244,0xfffffd34,0xffffff45,0xffffffad,0x995,0x7b,0x494,0x968,0xffffff9b,0x373,0x756,0xfffffc6f,0xffffea9f,0xfffffd05,0x1ce,0xffffff83,0xffffed37,0xffffceb9,0x63c,0xfffff77e,0xffffef47,0x14c3,0x1bbe,0xffffe022,0xffffdcb4,0xfffffa85,0xfffff6e0,0xffffeedb,0x4bd,0x6dd,0x1a8,0xffffd7d7,0xfffffdac,0xbf3,0xffffe694,0xce5,0xfffff97b,0xfffffb6f,0x9c9,0xffffea1b,0xffffebe5,0xffffed25,0xfffff702,0xffffeda1,0x25be,0xfffff6c3,0x211e,0x1d35,0x4683,0x965,0x2649,0xffffec11,0x50c6,0xd7f,0xffffe488,0x183b,0xfffffac8,0xffffea12,0xfffffc1c,0x2cf3,0x138a,0x82b,0xfffffd56,0x2669,0x263,0xffffe365,0x1afa,0xfffffded,0xffffe0c8,0x1468,0xffffefcb,0xfffff791,0x14d5,0x34ee,0x17d6,0xffffe7fc,0x60d,0x2589,0xffffedac,0xfffff236,0x3f7,0x91f,0x2aad,0x742,0x663,0x1a3d,0xfffff539,0x2564,0x74a,0x584,0xfffffd86,0x2e2d,0x8de,0xfffffe87,0xfffffc31,0xd67,0x360d,0x1206,0x25ff,0xfffffd14,0x1f7a,0x200a,0x1ca2,0xfffffef3,0x122b,0x2a00,0xfffffeb5,0x21b3,0xfffff185,0xfffff5ad,0xfffffdb6,0x166d,0x274,0x344,0xfffff967,0xfffff6be,0x2347,0xaa1,0x19d1,0xa61,0xfffff101,0x111f,0x3bc,0x2531,0x2a29,0x31cf,0xfffff425,0xfffffdbb,0x36c,0x1735,0xfffff2f1,0x1f2b,0x305,0xfffff626,0xa85,0x2828,0x2841,0xf83,0x2d05,0xfffff955,0x2e4,0x3824,0x5fb,0xffffef8e,0xfffffc60,0xfffff425,0x2842,0x3680,0xffffe70d,0xffffff5b,0xfffffc85,0xfffffa05,0x61b,0xfffff78f,0xffffdf69,0xfffff1c6,0x5b1,0x713,0x10,0x3095,0x46c5,0x2c1c,0xfffff732,0xfffff87d,0xffffeef5,0x3df,0xfffff87d,0x937,0x38bd,0xffffed1b,0xfffffb50,0x4aa,0x31dc,0xfffff201,0xfffffd7b,0x49ba,0xa0b,0x26f3,0xfffff089,0x1f7,0x1924,0xfffffcc1,0x697,0xfffff5ca,0x820,0x362e,0x1a,0xc2,0x104a,0xfffff72c,0xfffffd63,0x1f1d,0xfffff06e,0x2e25,0xffffff29,0x1c25,0x4b1f,0xfffff221,0x122b,0x37b2,0x131b,0x1981,0x1b84,0x237f,0x667,0xfffff9cf,0xfffffefd,0xfffff554,0xbaa,0x1bc,0x1d38,0xfffffc44,0x272a,0x10e,0xfffff0ec,0x487,0x1ff0,0x433,0x1de2,0x1a7,0xffffdfce,0x2790,0xfffffda5,0xfffffbbb,0xfffffe65,0x275f,0x7c7,0xfffff2ea,0x2d0e,0xfffff5bf,0x231a,0x118,0xffffe5cd,0xda8,0xffffff6f,0x76c,0x1de,0x97c,0xffffff85,0x24b,0x1dc,0x936,0x137,0x168,0x385,0xfffffe9c,0x7,0xee,0x404,0xfffffffd,0x12c,0x253,0x547,0xfffffc86,0xffffff66,0x514,0xfffffc71,0xffffffe9,0x4f,0x11b4,0x1,0x19a,0x2af,0xffffffac,0xfffff987,0xfffffd2c,0xfffff5f2,0x2cd,0xffffff40,0x1af,0xffffff50,0x8b,0xfffffdf1,0xc1a,0x57a,0x151,0x6c,0xba2,0xffffff55,0x3e0,0xfffffffb,0xfffffe8f,0xffffffae,0x4ce,0xfffffe1b,0xea,0x107d,0xc2,0xfffffffa,0xfffffffb,0x1b4,0xffffff6e,0xffffffde,0xffffff32,0x1bb,0xfffffdff,0x502,0x31b,0xfffff9ef,0x1a0,0xb,0x4e4,0x97a,0x251,0x134,0x9f8,0x31b,0x147,0x273,0x7b5,0x2b3,0xfffffeb2,0x6a,0x11c,0xfffffd89,0x249,0x1a0,0xfffffda7,0x4b1,0xffffff8c,0x24e,0xffffff53,0x1c2,0x28,0xc8b,0xf7,0x658,0xffffff77,0x603,0x341,0x204,0x161,0xfffff731,0x1f9,0xc0,0xffffffe1,0x9b3,0xffffffa0,0xffffff87,0x553,0xffffffb3,0xffffffd5,0xcf3,0xfffffe63,0x2c3,0x142a,0x23,0xfffffeb5,0xfffffdfd,0x54d,0x32,0x2e4,0x6f4,0xd68,0xffffff12,0xfffffe1f,0xfffffffa,0x59,0x3,0xfffffef2,0x5e,0x6f7,0xcdb,0xfffffc11,0x372,0x2b7,0xfffffd53,0x44f,0x8ff,0x32e,0x309,0xfffffe82,0xfffffc71,0x10,0xfffffe0c,0xffffff8e,0x28a,0xfffffec4,0xa47,0xffffff72,0xfffffef2,0x272,0x13e3,0x214,0x2,0xa5,0x689,0x7a2,0x2a5,0xfffffe55,0xfffffb35,0x6f9,0xffffffe5,0x56e,0x3e1,0xfffffa3d,0xffffff86,0xffffffb2,0x97e,0x19,0xfffffe45,0xfffffd66,0xa0,0x53,0x476,0xfffffbd5,0x369,0x161e,0xffffffa5,0x21,0x32,0x12ad,0x59,0xffffff72,0xfffffff4,0xccc,0xfffffd19,0x50c,0x3c0,0x992,0xffffff43,0xfffffeeb,0x2de,0xfffffd88,0x3f5,0xffffff40,0x783,0xfffff050,0xfffff756,0x7d2,0x1c3c,0xffffea54,0xffffedbf,0xffffff5d,0x8be,0xffffde47,0xffffe553,0x2350,0xffffef98,0x407,0x6ed,0xfffff96c,0x29a,0xb2d,0xfffffbfb,0x1f88,0x3000,0x4e0,0xfffff619,0xdb8,0xffffffed,0x4f2,0x7d1,0xfffff735,0x1e2,0xfffff8a3,0xcab,0xffffefe1,0xfffff480,0x80c,0x155c,0x967,0xa46,0x1111,0x1266,0xfffffd19,0xffffff3d,0xffffec01,0xfffff313,0xfffffad2,0xfffff244,0x59,0x1ae,0xfffff9b2,0xf94,0x510,0x81e,0xfffffc9c,0xfffffaf4,0xe34,0xaf2,0x536,0x115a,0xffff46d5,0xfffffa26,0xfffffc44,0x1f3,0x124b,0xe7,0xfffffb28,0xcf7,0xfffffff5,0x669,0xffffc4b9,0xfffff6eb,0x272,0xfffffe29,0xa9d,0x158,0xfffffb3d,0x105,0x445,0x714,0xdc0,0x88b,0xfffffd8a,0xe94,0xfffffe0f,0xfffffd2d,0xfffffc86,0xed9,0xa0e,0xdae,0xda,0xcc1,0xfffffe73,0x37,0x37d,0xfffffc99,0x236,0xffffbdc0,0xfffffe86,0xfffffef1,0x245,0xfffffeef,0x2b0,0xfffffbcc,0xfffffead,0xfffffbbb,0xfffffe59,0x124,0x13d5,0xfffffbc9,0xffffd38d,0xf88,0xfffffd05,0xcf7,0xfffffdf9,0x8d6,0x1af,0x616,0x39,0xba,0xa0,0xe39,0xba,0x3b9,0xffff2830,0xb4e,0xfffffd08,0xfffffe8f,0x41e,0x558,0xfffffb42,0xfffffb1f,0x298,0x22b,0x4ce,0xfffffecf,0xfffff895,0xfffffb58,0x40,0xed4,0x119,0xfffff8e9,0xfffffc71,0x17e7,0xfffffc45,0xfffffc91,0xfffffd05,0x1781,0x2ac,0x1d2,0xfffffe46,0x21a,0x3dd,0xfffffff7,0xfffffa4f,0xfffffdc6,0x191,0x961,0x5b1,0xffffcf7d,0xfffffb5c,0x6b4,0xb30,0x8c8,0xfffff764,0x12a2,0x455,0x330,0xfffffe64,0xffff9aa0,0xfffffc67,0xcf9,0xfffffe6a,0xc2,0x645,0x2d,0xffffc3cd,0x785,0xfffffbed,0x1303,0x600,0xfffffdf9,0xfffffe45,0x1d5,0x1fb,0xffffc52c,0x11aa,0xffffb629,0xffffff88,0xfd7,0xfffffbee,0xfffffcb2,0xffffff84,0xfffffdef,0xfffffe4d,0xb9e,0xefa,0xfffffddf,0x1562,0x1fb,0x1d,0x257,0x296,0xc68,0x4e4,0xfac,0x1e0,0x85,0xfffffb91,0xfffffbaf,0xfffffd3a,0xf3c,0xfffffeb3,0xfffffc0f,0xfffffdbb,0x763,0x81,0xffffd066,0x1b8f,0xfffffed0,0xfffff9c7,0xfffffa94,0x58,0xfffffc1c,0x12ae,0x33,0x3d2,0xfffffcbc,0xfffffbb3,0xb1f,0x810,0x14d9,0xfffffaef,0xffffe370,0xfffff842,0x534,0x98d,0x4ea,0xfffffd6d,0xfffffe04,0xa62,0xa0c,0x1fd7,0x632,0x133c,0x9a9,0x11f3,0xffffff8a,0xffff0cfa,0xfffffd24,0x2b,0xfffffba6,0xfffffc20,0xfffffb2d,0xfffff807,0x16c,0x866,0xfffff340,0xfffffdd8,0xfffffa6e,0x956,0xfffffd99,0x9b2,0xffffff3f,0x700,0x80a,0xfffffcbb,0xfffffd1b,0x5bf,0xd9c,0x3d2,0x1d1,0x84b,0xfc7,0x127b,0xfffffc74,0xffffd6be,0xfffffd5e,0xc7,0xfffffb76,0xfffff7c1,0xffffff54,0xbad,0xfffffcd9,0xfffffc1a,0xfffffdf9,0xd76,0x14c5,0xfffff83f,0x542,0x1ef,0xfffff7af,0x6fe,0xfffffe57,0xfffffe02,0x49c,0xffffff27,0x12fa,0xfffff7bf,0xa78,0xffffffd8,0x294,0xffffff0b,0xba5,0xfffffa26,0xda,0xfffffc34,0xfffffda0,0x490,0xcd0,0x37c,0xfffffcbc,0xfffffd77,0xfffff98e,0xfffffe97,0x118c,0x1730,0xfffffaab,0x13da,0xffffd680,0xffffff65,0xfffffbea,0x14f8,0x6f1,0x88e,0xcc8,0xc9,0xffffff66,0xfffffef4,0xfffffb3a,0xfffffe5f,0x5e6,0xbdb,0x1256,0x5a8,0x346,0x8d3,0xfffffc94,0x338,0x71,0xffffffb0,0x8f4,0x3e0,0xffffff4a,0xffffff00,0xfffffde8,0x7a6,0x29,0xffffefd6,0xffffff23,0xfffffd77,0x185,0xffffff4f,0xffffff92,0xffffff30,0xffffff8e,0xffffff8e,0x158,0xfffffeb1,0x22,0x7f7,0xfffffe93,0xfffffccb,0xaab,0x5a,0xffffffec,0xfffffc6a,0x8f7,0x2c3,0xa18,0xbf9,0x11e,0xfffffe30,0x9c7,0xffffff2f,0x616,0xbf8,0xffffff5c,0x11c9,0xffffffe6,0x1b,0xfffffaa7,0x6,0xffffffef,0xffffff13,0xfffff5b0,0xfffffc8d,0xc45,0x15e,0xfffffe5f,0x96d,0xfffffc72,0xa01,0xfffffeaa,0xfffffdc6,0xa66,0x37b,0xfffffed9,0xfffff7cf,0x1a0,0xd19,0x2a2,0xffffff1d,0xffffff70,0xc0a,0xfffffe3c,0xc31,0xffffff63,0xfffffa76,0x183,0xfffffdfa,0xd2b,0xffffd154,0x5a1,0xfffffe73,0xffffffed,0xfffffbb7,0x361,0xfffffead,0xffffff22,0x2e,0xfffffbd5,0x7ee,0x1a3a,0xffffffa1,0x1,0xfffffaf8,0x26d,0x10e,0xffffff76,0x311,0x64f,0x27a,0x22a,0x50,0xffffff9d,0xfffff9ca,0x9a4,0x1b9a,0xfffffe4a,0xffffff6d,0xfffffba1,0x4c6,0x11,0x7e,0x401,0xfffff9b8,0xfffffe9e,0xfffffd29,0x82a,0xfffffda5,0x1ac,0xfffffe5b,0xbdb,0xd2d,0x2e5,0xb18,0xfffff9d3,0xfffffcb0,0x697,0xfffffdbf,0x2ad2,0x890,0xf50,0xfffffff3,0xfffffc4f,0x70d,0x203,0x92d,0xffffffcf,0xfffffdb9,0xad9,0xfffffe73,0xfffffffe,0xffffff6f,0xfffff51b,0xfffffe07,0x559,0xffffff45,0xfffffe73,0xfffffd60,0xffffff6b,0x936,0x543,0xfdd,0xfffffb9f,0x123,0x87c,0x562,0xffffffe5,0xfffff8ff,0xfffffca6,0xfffffbc6,0xfffffef0,0xe8a,0x91b,0x433,0x682,0x8c0,0xfffffdd0,0xfffffe13,0x8fd,0x69a,0xfffffe3c,0xfffffb1e,0xffffffa8,0x77e,0xfffff871,0x339,0xffffffee,0xfffff9f1,0xffffffaf,0xfffffffd,0x19d,0xffffffe6,0x6fc,0x5d,0xfffffea6,0xfffffc60,0xffffffd9,0x315,0xfffffe83,0xffffffec,0x8a8,0xffffffaa,0xffffffa8,0xfffffd7a,0xa64,0xfffffeef,0x28f,0xffffff01,0x1d3,0x1df,0x536,0xffffff72,0x334,0xffffec36,0xffffffc6,0xfffff9f5,0xfffffeb6,0xffffffde,0xfffffe43,0x567,0xfffffda9,0x70d,0xffffffca,0xffffffb6,0x607,0xfffffed2,0x56f,0xffffff4f,0x26e,0x88b,0x341,0xfffffcc0,0xffffff9a,0x7ff,0xfffffe77,0x58b,0xa3,0xffffffcd,0xffffffe2,0x15e,0xfffffff5,0xfffffe07,0xfffffee7,0xebc,0xffffff21,0xffffff65,0xfffffdbf,0xffffff44,0xfffffe8a,0xffffff93,0x1fb,0x4c,0x192,0xffffff52,0xfffff9ec,0x817,0x186,0xfffff855,0xffffff0a,0xb08,0xc47,0x2e8,0x939,0x786,0x791,0xfffffef9,0xa69,0xfffffe47,0x47d,0xffffff68,0x889,0xffffff2f,0xffffff30,0x5b4,0x2d9,0xfffffe5e,0xa5c,0xcd,0x216,0xfffffebf,0x3,0x3a6,0xfffffec5,0x404,0xfffffea7,0xffffff75,0xfffff8e6,0x530,0x786,0x65c,0x416,0xfffffd39,0xfffff834,0xc24,0xffffffe3,0xfffffdaf,0xfffffe8a,0x66e,0x3b4,0xffffffc0,0xd8c,0x4e7,0xfffffef4,0x1048,0x1093,0xfffff024,0x422,0xffffd0fa,0x1305,0x2477,0x1f4,0x3a1,0x8c0,0xfffff033,0xffffff5b,0xffffeb69,0xfffff3fb,0x787,0x10a5,0xfffffd73,0xffffec55,0x116,0xfffff919,0x529,0x729,0x554,0xfffff6ef,0x5d7,0x771,0x1057,0xfffff4af,0xfffffe0a,0x1592,0x4b7,0xffffffc1,0x15e2,0xfffffb1d,0xfffffd5c,0x190b,0x460,0x59b,0x201,0xfffffa28,0xffffc5d4,0x1952,0x123,0xfffff96e,0xfffff735,0xc9d,0x7a6,0x988,0x1203,0xffffee53,0x3db,0xfffffc45,0xfffff5da,0xfffff342,0xfffffa87,0xf8,0xffffb931,0xffffa1a4,0xfffffe66,0xfffffc19,0xfffff4a1,0x309,0xfffff364,0x3b8,0xee6,0x534,0xfffff3ad,0x38,0xfffff147,0x1160,0x2d0,0xfffffffe,0x3ae,0xfffff7cf,0xfffffde4,0xfffffd0b,0xfffffb72,0xfffffc3a,0xffff5558,0x81d,0xfffff795,0xa3f,0xfffffa6f,0xfffffa01,0xb88,0xfffffa1d,0xfffffd48,0xfffffbae,0xfffcb8eb,0xfffff7b3,0xa84,0xfffffddc,0x2161,0xfffff549,0xfffffcb9,0xa79,0x13da,0xfffff70c,0x6eb,0x130,0xfffff644,0xfffff479,0x7bf,0xfffffcd7,0xffffffc5,0xfffff81a,0xfffff9a7,0xfffff695,0xfffff8b5,0xfffff547,0xfffff869,0xfffffd6c,0x1762,0xfffff97b,0xfffff5f8,0xfffff7ba,0xffffff65,0x7d2,0xffffc9c0,0x107,0xfffff9c0,0x136c,0x653,0xfffffdd6,0xfffff6ee,0xfffffc43,0xffffff54,0x13a3,0xfffffe5f,0x13ae,0xfffff5b6,0xfffffd7e,0xfffffa4a,0xfffff98d,0xfffffa31,0x4e5,0x2f1,0xfffff462,0x715,0x11d9,0x22e2,0x117e,0xffff8bbe,0xffffb1bd,0xfffff5f1,0x341,0xfa1,0xfffff1ef,0xfffff86e,0xfffffda4,0x47c,0x65c,0xfffffaeb,0x577,0x122c,0xfffff9ad,0xffffe9a7,0x114d,0x2f5,0xfffffa9b,0xfffffce8,0xfffff952,0xfffff226,0x15e8,0x375,0xffff8d08,0xffff7e00,0xfffffd28,0xffffffd8,0xfffff5b9,0xfffff65f,0xffffbaaa,0xfffff442,0xfffffd81,0xfffff9bd,0x181,0x2a72,0xfffff3ec,0xffffb40a,0x11c5,0x850,0xffff7dbf,0xa48,0xfffffc64,0x1a08,0xfffff96d,0xfffffb4f,0xfffff54c,0x1089,0xaa9,0x1105,0xfffffec0,0x83e,0xffffc73f,0xfffffeb6,0x674,0x14fb,0xfffffb8f,0xfffffbbe,0xfffff3cf,0x851,0xfffff83c,0xfffff685,0xfffff92f,0xfffff648,0x14cb,0x38c,0x1055,0x13,0xffffff5d,0x177d,0x5d6,0x2636,0x1b97,0xfffff7db,0xfffffda9,0x290f,0xfffff547,0xfffffddb,0xfffff9a8,0x1863,0x45a,0xffff8730,0x184a,0xffffff34,0xff1,0xfffff9c4,0xffffc530,0x12b6,0xfffff365,0x12f9,0xfffff7d9,0xffff6c08,0xfffffff3,0xfffffed8,0xfffff64b,0xfffffc67,0xa28,0xffffffe9,0xfffff4ef,0xfffffa2a,0xfffffea9,0x2e,0x5ec,0x1494,0xfffff832,0x343,0xfffffe46,0xfffff802,0xfffffed5,0xc4,0x11a4,0x522,0x68f,0xafb,0xfffffad6,0x15b,0xfffffd15,0x7fa,0xfffff16d,0xfffff0a2,0xfffff838,0xfffffb5c,0xfffffaa1,0xfffffa74,0xfffff144,0xfffdb369,0x10d2,0xfffff848,0x826,0xfffff93f,0xfffff6d0,0x542,0xa7a,0x37b,0xfffffc82,0x967,0xfffffba8,0x2c6,0xfffffc2a,0xfffffed8,0xfffff9ba,0xfffffe13,0xfffffbad,0xfffff586,0xfffffd7f,0x520,0x14f8,0xfffffc1b,0xfffff969,0xfffff58b,0xfffffe71,0xfffffb6a,0xfffff3c8,0xffffefea,0xfffff883,0xffffc48f,0xfffffcb7,0xda,0xfffff2e0,0xfffffade,0xffff7ff4,0xfffffcfc,0x946,0x16da,0xfffffddc,0x1454,0xfffffa1b,0xfffffc08,0x296,0xc8,0xffffb7ce,0xfffff57a,0xaa4,0x11ab,0x2ff,0x2b2,0xffff59b2,0xfffff901,0xfffff4b7,0xffffffc1,0xe4,0xfffff5e3,0xfffff798,0xffff72c9,0xfffffbd5,0xfffff3b2,0x180,0xfffff89e,0xfffff42e,0xfffff66e,0x4730,0xfffff838,0xb3b,0x101e,0x1625,0xffff9ec6,0xfffffb2b,0xffffff85,0x811,0xf5c,0xfffffeae,0x70a,0xc78,0xffffffe7,0xd59,0xffffff59,0xfffff7cb,0x14,0x1440,0x6d,0xfffff962,0x634,0xfffffebb,0x13a,0x8e8,0xffffff99,0x109,0xaef,0xfffffee6,0x13e3,0xffffff34,0x21d,0x14a4,0xfffffff9,0x3c,0xfffffef9,0xfffffb57,0x42e,0xfffffa5c,0xffffff91,0xfffff8c3,0x6f6,0x77b,0xffffff82,0xde5,0xfffffe8b,0xffffffd8,0xb25,0xfffffceb,0xd5,0xda,0xbb9,0x9d2,0xffffffe6,0xfffffe4a,0xffffffa6,0xfffff1eb,0xffffff7e,0xffffff1c,0x446,0x326,0xfffffa30,0xffffff4b,0x5db,0x5de,0xfffffe9b,0x29,0xffffff20,0x134f,0x3,0xfffffb5a,0x4b6,0xffffffe3,0xfffff735,0xffffff35,0x1814,0x1ed,0x648,0xfffffed0,0xfffffb22,0xfffffd17,0x43,0xfffff53b,0xfffffd2b,0x386,0x72b,0xd17,0xffffffe2,0xffffeeea,0xfffffe53,0xecf,0xfe,0x16c4,0x66,0xffffffd2,0xffffffab,0xfffffeee,0x19,0xed5,0xfffffa15,0xffffffd8,0x50f,0xd4,0xfffffe46,0xffffff89,0x79b,0x1983,0xffffee48,0x6a2,0x185,0xa20,0x2b6,0xffffffa8,0xfffffff2,0xa34,0xfffffd10,0xfffffee9,0xffffff0f,0x97,0xffffffb7,0x436,0xb25,0xfffff6e6,0xffffe6a2,0x8cd,0xe2,0xfffffdde,0xffffff58,0xfffffabc,0x72,0x35f,0x588,0x76,0x6a7,0x3e5,0x6e6,0xffffff8a,0xd3a,0xfffffd8f,0xfffffb21,0xfffffdf8,0xfffffbf2,0xfffffd98,0x995,0xfffffe3f,0xfffffd2d,0xffffff78,0xffffffc3,0xfffff791,0xfffffa54,0xfffff8d2,0x4a1,0xfffff4dc,0xfffffd20,0xfffffffe,0xfffffadc,0xfffffedf,0xffffffc7,0xfffffff8,0xd8,0xffffff4d,0x32,0x1322,0xfffffc74,0x3f1,0x8c6,0x11d4,0x281,0xfffffdc5,0x776,0x71,0x6f3,0xfffffa99,0xd4f,0xffffffdd,0xfffffa4a,0x760,0x14d2,0xb2,0xffffed59,0x815,0xffffff8f,0x889,0x4b,0xfffff966,0x1ac,0x5d7,0xfffffff0,0xffffffe9,0xfffffae7,0xfffff40f,0xdb9,0x3ac,0xd1a,0xcd6,0x19fa,0xffffff87,0x2cf,0xedd,0xffffffe4,0xffffffac,0x3cd,0x64,0xfffffa63,0xfffffdad,0x898,0xbb7,0xfffff7f8,0x846,0xfffffff3,0x369,0xffffffbe,0xffffff0b,0x372,0xfffffec6,0x9c0,0xd2,0xffffff88,0x31,0x1d8,0x87b,0xfffffbb6,0xffffff72,0xfffffe68,0xffffff79,0xffffff3b,0xffffff55,0x36c,0x1b,0x6a7,0x1d,0xaac,0xfffffd77,0xffffff1f,0x628,0xfffff9bd,0x1153,0x1019,0x503,0x24b,0xa10,0xffffffef,0x1116,0x91e,0xfffffe07,0x283,0x121,0x2f,0xfffffffb,0xfffffdd8,0xffffff89,0xffffffc3,0xfffffb28,0xffffff2e,0xfffffb71,0x1db,0x28a,0xfffffe1c,0xffffd1f6,0xb45,0xfffffd2c,0x104e,0xfffffe70,0xa9f,0xffffff9d,0xfffffe28,0xffffff7a,0xfffffdaa,0xfffffe19,0x77,0x6ec,0x305,0xfffff640,0x1fb3,0xffffef8d,0xfffffd2a,0x2cc,0x38,0x13eb,0x26b,0xfffffe4a,0xfffff031,0xffffff49,0x2c,0xffffff23,0x177,0xfffffea1,0xffffff8c,0x3c7,0x434,0x31,0xfffffe26,0x743,0xfffffec8,0xfffffdc7,0xfffffdaa,0x2b0,0xfffffc11,0xfffffee5,0x57f,0xfffffe9c,0xfffffe65,0xfffffc7f,0xfffffec9,0x4ef,0xfffffcaf,0xfffffb9b,0xfffff81b,0xfffffd73,0xb7f,0xfffffa54,0x49a,0xfffff863,0xccb,0xcc,0xfffffc10,0xffffffc8,0xffffff21,0x362,0x0,0x88d,0xffffff9e,0xffffffb4,0xfffffc7e,0xfffff8dd,0xffffff24,0x860,0xfffff520,0xfffff71a,0xfffffca7,0x14b,0xfffff60c,0x43d,0xfffff908,0x159,0xfffff617,0xfffff161,0xffffff37,0xfffff360,0xfffff8b8,0xfffff7c1,0xfffffc2d,0xfffff295,0xfffff55c,0xffffea94,0xffffe3f5,0xfffffc91,0xfffffd71,0xffffeebb,0xfffff275,0xffffe31c,0xffffe3fc,0xfffff9d6,0xfffff924,0xffffe88c,0xfffff031,0x10d8,0xfffff034,0xfffffc7e,0xfffff904,0xfffff689,0xfffff164,0xffffee4c,0xffffeac0,0x969,0xffffda3a,0xab,0xffffe30f,0x238,0x1d3d,0xffffe623,0xffffeef5,0xffffee4d,0xfffff914,0xffffee24,0xffffe7f7,0xfffff2cf,0xfffffd39,0x1f36,0xffffee14,0xffffe026,0xffffedb7,0xfffff462,0xfffff749,0xffffe5a4,0xfffff62f,0xffffe61d,0xffffffa4,0xffffebd1,0xfffff314,0xffffeae8,0x5c6,0x57a,0xffffeced,0x14ff,0xfffff607,0xfffffd85,0x480,0x2293,0x372a,0xfffff9fd,0xe76,0xfffff9f8,0xffffffbf,0xfffff55a,0xfffff613,0xffffe189,0xffffea3e,0xffffda5b,0xfffff279,0xffffdf46,0xffffff9e,0xbb,0x29db,0xffffef33,0xfffff98e,0xffffedf8,0xfffff38b,0xffffe686,0xffffef54,0xffffe3ad,0xfffff343,0xffffd92d,0xffffff3b,0xfffff658,0xffffdf92,0xffffe696,0xfffff16d,0xfffff8af,0xffffea59,0xfffff016,0x97b,0xfffff403,0xfffff80c,0xfffff3e0,0xffffef4a,0xfffff25d,0xfffffeac,0xfffff180,0xffffef46,0xffffe873,0x111,0xffffe461,0x83b,0xfffff285,0xffffee69,0xffffef4e,0xffffe5e2,0xfffffdbd,0xfffff2d9,0xffffed02,0xfffff8bd,0xfffff12e,0xffffece3,0x5b32,0xffffdf95,0xffffee0d,0xffffe8ee,0xfffff00f,0xffffe258,0x1866,0x111d,0xfffff2ed,0xffffe76f,0xfffffdd7,0xffffdef7,0xffffe60c,0xfffff7cd,0xfffffd64,0xffffedcf,0xffffe155,0xffffef64,0xffffe32a,0xffffedb2,0xfffff841,0xffffea6c,0xffffe3fe,0xffffff50,0xfffff5cf,0xfffffd3e,0x2ff,0x1649,0xffffeee1,0xffffe685,0xffffe94a,0xffffe86f,0x2b25,0x30e7,0xffffe82e,0xfffff153,0xfffffd04,0xffffe35b,0x5ec,0xffffec48,0xfffff7e8,0xfffff8fa,0xffffff04,0xfffff05e,0xffffe2c3,0xffffee5a,0xfffffdbf,0xffffe0a0,0xffffe115,0x17b7,0xb3d,0xfffff03e,0xffffe996,0xffffe779,0x914,0xffffe512,0xfffff21b,0xffffefb8,0xfffffb3d,0xffffeb89,0xfffff013,0x258,0x1f0b,0xffffe39d,0xffffff26,0xffffe110,0x1754,0x2f10,0x66e,0xffffe310,0xfffff391,0x1f86,0xffffec7a,0xffffe90a,0xffffd893,0xffffe8cd,0xffffeb14,0xfffff1a7,0xfffffdbc,0xfffff779,0xffffe4f9,0xfffffb50,0x305c,0xd5e,0xffffdf65,0xffffdbde,0xffffe85d,0xfffff63e,0xffffe4e9,0xffffe273,0xfffffb24,0xffffe547,0xfffff1b5,0xfffff5c4,0xffffe948,0x6de,0xffffedd3,0xfffff0bf,0xffffed10,0xfffff8e4,0xffffe612,0xfffff555,0xffffef76,0xffffe227,0xfffffa4f,0xfffffbff,0x5ef,0xffffe9e5,0xffffeb98,0x1c41,0xffffead0,0xfffff3c8,0xfffffb7d,0xffffef92,0x26ff,0xffffee7d,0x10ec,0xffffe454,0xfffffab8,0xffffee7d,0xffffeda8,0xffffdf3d,0xfffffddd,0xffffebfd,0x11c3,0xffffe00f,0xfffffc32,0x17f,0xffffee47,0xfffff01b,0x9,0xfffff6b8,0xffffe16a,0xba,0xffffeb56,0xcf3,0x23d7,0xfffff70c,0xfffff22a,0xffffe2c7,0xffffeb8b,0xf5b,0xfffff277,0xfffffe67,0xfffff70f,0x1ad0,0x4aa,0xfffff4bf,0xffffeea8,0xffffe884,0xffffedf8,0xfffff656,0xfffff5af,0xfffffde4,0xfffff7e7,0x471f,0x2ffa,0xfffff8fe,0xfffff62c,0xffffdfe0,0xffffe46c,0xffffe395,0xffffec1f,0xfffffc99,0xfffffad1,0xfffff9ee,0xffffeee7,0xffffffdb,0x59b,0x2479,0xfffffb0e,0x275f,0xfffff183,0xfffff91b,0xfffff24c,0xfffff5be,0x15dd,0x64b,0xfffffff9,0xc,0xffffffb1,0x636,0xbcb,0x52,0x19,0x2b,0x1292,0x1e9b,0x2be,0x12,0x1218,0x14,0x2387,0x22,0xef5,0x11,0x3b7,0xbb3,0x18bf,0x10,0x1142,0xffffffff,0x378a,0x1ddf,0x1e,0x28,0x2b,0x4d9,0x1ff,0x1a,0x160,0xfffff877,0x29f4,0xc0,0x2,0x32,0xd,0x885,0xfe,0xb08,0x49,0x14cf,0x9,0x817,0x13,0x1cc9,0x1a2c,0x15,0xe10,0x46,0x1d7c,0x99,0x25,0x507,0xbc3,0x1fec,0x4b,0x14fa,0xd7a,0x17,0x16,0x17,0x4,0xae9,0xb,0xf15,0x1fb7,0xb8b,0x999,0x577,0xfffffff1,0x1c,0x14,0x72e,0x40,0x1f,0x29,0xff,0xfffffff9,0x91,0x10,0x17,0x1431,0x32,0xffffffbf,0x2b71,0x62f,0x109f,0x31,0xfffffffc,0x48d,0x45ff,0x7ca,0x30,0x1c,0xb7f,0x13,0x1e33,0x277,0x19,0x1c6,0x10,0x1777,0xf,0x50c,0x9f,0x66,0x13,0xfffff911,0x9,0x708,0x2d,0x796,0x466,0x1888,0x1fec,0x19,0xffffffb8,0x3ee6,0xc,0x18,0x2d,0x15c4,0x158,0x12,0x5f,0x6,0x14,0x56,0xa,0x19,0x1d5f,0xbfe,0xffffffd5,0x1895,0xa53,0x7a,0x4,0x4f,0x18,0x1723,0x2c2,0x3ea,0x8c1,0xd87,0x366,0xd87,0x62d,0x8d6,0x11b2,0xe11,0xffffffe3,0x329,0x24,0x666,0x23,0x189,0x121b,0xaf5,0x57b,0x3,0x1c,0x2223,0x29,0x198,0xe,0x88d,0x9,0x14,0x3187,0x28bc,0x2,0x191c,0x9,0x1343,0xfa2,0x17e7,0x6d4,0xcc0,0xaf2,0x467,0x16,0x15,0xd,0xd,0x31,0x5b,0x901,0x8,0x21,0x2d0,0x10ca,0xfffffff9,0x30,0x4e,0x1180,0x810,0xa,0x37,0x44,0x568,0x1f,0x1f,0x1632,0x48f,0x78b,0xd,0x1fa6,0xcac,0x19,0x897,0xc4,0x705,0x15,0x1542,0x458,0x1d,0xeb5,0x500,0xbea,0x1777,0x25,0x11d7,0x41,0xacf,0x6,0xe,0x17,0x25,0xd,0x35,0x11,0x14f9,0x8,0x2f,0x406c,0x14,0xa,0x2883,0x716,0x10,0x4376,0x16,0x18b0,0xd37,0x37,0x20,0x15,0x934,0x8fe,0x6,0x16cb,0x10a2,0x1476,0x31b2,0xed,0x1a,0x1d,0x17,0x1a,0x32,0x33ea,0x15,0xeeb,0x4bb,0x84b,0x7ee,0x29,0x22,0x70,0x11,0xfffffe09,0x5cb,0x1876,0x591,0x4649,0x1483,0x10ac,0xf3f,0xbbd,0x32,0x2c68,0x3,0xf57,0x1095,0xfffff321,0xffffff6d,0xffffeaf0,0xffffe1ec,0xfffff7f3,0xfffff862,0xffffff09,0x50b,0xffffffba,0x14ce,0xe29,0x30,0xffffec01,0xffffe83c,0xfffffa9d,0xfffff85d,0xfffffa96,0xfffffd35,0xfffff808,0x369,0xfffff12e,0x1150,0xffffea6f,0xfffff5b5,0xa74,0xfffffd01,0xa09,0x14e5,0xdd4,0xf28,0xfffffeea,0xd02,0x12a3,0xffffe600,0x185b,0xffffe94a,0xfffffd33,0xeb6,0xffffea7b,0xa5f,0x1226,0xfffffa89,0x607,0xffffea8e,0x1053,0xfffffdae,0xfffff883,0x3cf,0xfffffec9,0xe29,0x420,0xfffffa4f,0xfffff705,0xfffff6f3,0xffffe2f7,0x828,0xb10,0x207b,0xffffec6e,0xffffffb0,0x1ba2,0x16db,0x917,0x445,0x334,0x13e4,0xffffff48,0xffffee2a,0xfffffd1d,0x915,0x4e6,0xfffff42a,0xfffffb77,0xfffffbb2,0x1152,0xffffe90d,0xcfb,0x26b,0xffffdfd7,0xad2,0xa99,0xffffcaec,0x6e1,0xfffffdf5,0xdc4,0xfffff97f,0x226,0x38,0xfffffab5,0x168c,0x482,0xe9,0x29f,0x158,0x83d,0xfffffa68,0x738,0x8ba,0x437,0xfffffc8e,0x18d0,0x4d1,0xd74,0x24c,0x1a8,0x189c,0xd6a,0x1123,0x37e,0xadf,0x12c6,0x7f3,0x7,0xfffff87f,0xfffffc61,0xfffffd45,0xfffffe95,0xa8d,0x792,0xd69,0x44c,0xb00,0xaa0,0x729,0x5f6,0x5c6,0xd5d,0x84e,0x9fd,0xd8a,0x683,0xe0c,0xfffffd5b,0xd18,0x966,0xfffff987,0x790,0xd00,0xb0c,0x11b2,0x15bd,0x162,0xb6,0xfffff793,0x52a,0x1575,0xd65,0xfffffbcb,0x1157,0xfffff950,0x92d,0x5c8,0xffffff84,0x90b,0xbe4,0xfffff2ef,0xc4d,0x1322,0xffffff8f,0x161,0xbda,0xfffffe5b,0xab7,0xc53,0x69b,0xfffff9b5,0xab5,0xfffffb6c,0x69a,0x42b,0xffffb1ff,0xfffffec6,0x38f,0x34d,0x292,0xfffffcc1,0xfffffb7f,0x111,0xfffffb6e,0x1afb,0x119d,0xfffffe65,0x37,0xffffffcc,0x907,0xfffffe9d,0x139b,0xd77,0x7,0x659,0x542,0xf53,0xbe7,0xfffffc06,0xa0b,0x1133,0x10ef,0x10b,0xfffff98d,0xfc,0xea1,0x971,0x102f,0x43a,0x248,0x39f,0xfffff9e3,0xfffffd02,0xd31,0xe60,0xfffffff6,0x901,0x42,0x15,0x4cb,0xffffe85e,0xff5,0x7c9,0xdd,0xd46,0xd1e,0x44b,0xfffffdfa,0xac,0x5f4,0xb77,0xd2a,0x11b0,0x409,0x1604,0xfffffdcc,0xeb6,0x814,0x6e9,0xffffad4f,0xbc7,0x101e,0xfffffaad,0x993,0xc99,0x15ca,0x8eb,0x10ef,0x133b,0xd96,0x745,0xfffffbb3,0xffffffe7,0xd48,0x18,0x447,0x12d1,0xaaa,0xd48,0xc7f,0x1143,0xc26,0xfffffe6d,0xfffffe0a,0x820,0x690,0x2044,0x9fc,0x58c,0x7fc,0xfffff80e,0xfffffd39,0xd16,0x928,0xfffffdcb,0x2fb,0x873,0x9b0,0x10fb,0x20f,0x579,0xffffffd7,0xfffffe77,0xfa5,0xffe,0x2f8,0xb1b,0x533,0xa2f,0x8ba,0xfffffa0f,0x8c0,0xfffffd6f,0xfffffaad,0x199,0x501,0xfffffd20,0xd01,0xcb7,0x32c,0x9c,0x30a,0x4e2,0xfffffd60,0x8b7,0x6bf,0x806,0x9a0,0xffffc728,0x646,0xc51,0xfffff8a4,0xfffffdf8,0x61,0x677,0x63f,0xfffffd25,0xfffff755,0xffffff69,0xfffff812,0x7db,0xa88,0xcef,0x107e,0xde4,0x6f1,0x99f,0xf62,0xffff2e40,0x961,0x7c2,0x1c9,0xc2b,0x11f7,0xd2a,0x1031,0x454,0x501,0xf54,0xf38,0x37,0x345,0xc6e,0xfffffdf1,0xc9a,0xfffffb4b,0xb0e,0xf52,0xfffffcfe,0x6b4,0x11db,0xfffffec0,0x3b4,0x15b4,0x197c,0xad5,0xffffff20,0x65e,0xaa3,0xfffffdaa,0xffffdffa,0x5a1,0x694,0x666,0xd79,0xfffffc1c,0xfffff63f,0x3ae,0xcc5,0x147,0xb3e,0xf04,0x99b,0x316,0x7a,0x284,0x55,0xc49,0xbb5,0x4af,0xdf0,0x806,0x1052,0xfffffaa3,0x470,0xfffffc90,0x957,0xfffffca9,0xfffffd09,0xfffffdfa,0xc61,0xe8f,0xc10,0xfffff90a,0xfffff9c8,0xb59,0xfffffb5d,0x155f,0xfffffbb8,0xfa,0xd15,0x18c5,0x1418,0x736,0xa4a,0x1c1,0xffffffaf,0x320,0x96d,0xe0d,0xfffffc55,0x10b,0x206,0x357,0xfffffd8b,0xe4c,0x183,0x1099,0x9a3,0x25e,0xa5a,0x7b5,0x2e7,0x16c,0xde,0xc3c,0x2b1,0x825,0x3a5,0x495,0xacf,0x18d,0x3dd,0x67c,0x1d4,0x350,0xad7,0x282,0x154,0x3ab,0x182,0xca,0xd46,0x9d7,0xfffff88b,0xffffff8b,0x74,0x309,0x221,0xfffffea9,0xfffffcf0,0xfffffbcc,0x8c2,0xfffffdc7,0xffffff68,0x2f2,0xed,0xb61,0xfffff3be,0xaff,0x1328,0x5a4,0xd61,0xa7d,0x92c,0xf3a,0xfffffb7c,0x720,0x2ed,0x608,0x96e,0x8a4,0x3d2,0x676,0xfffffd4c,0xefc,0x77a,0xfffffd6c,0xe20,0xb68,0xfffffa06,0xfffffef2,0x18a6,0x26c,0xfffffe0f,0x9d8,0xdc,0xdc3,0x3ba,0xfffffd3a,0xfffff9d1,0x957,0xcf6,0x19e,0x5c4,0x750,0x10e,0x2af,0xa14,0xa47,0xb6,0xffffbc47,0xfffffb61,0xffffffe3,0xfffff974,0x2f,0xfffffe4b,0x442,0x108e,0x307,0x1103,0x745,0xfffffd42,0xd4f,0x2e5,0xfffffefe,0xac9,0x562,0xffffff85,0xfffffdc2,0xfffffb88,0xfffff60f,0x1259,0xfffffe03,0x73c,0x190,0x1de,0xfffffd93,0x90d,0x56a,0xba,0xbda,0x93e,0xfffffaf5,0x1796,0x326,0xc9a,0x7b8,0x3e2,0x235,0xfffffdf6,0x33,0xae0,0x399,0x653,0xfffffd13,0x75c,0xfffff6c6,0x5f5,0xfffffd6a,0x91a,0xa6d,0x7bd,0xfffffedd,0x4c,0x1383,0xcee,0x8d,0xfffffff7,0xcfc,0xffffffec,0x197,0x10c0,0xffffffca,0xe68,0x4d3,0xffffffda,0xfffffe3e,0x16,0x451,0x6d1,0x674,0xa80,0xffffffdd,0x4cd,0xd7,0x0,0xfffffdd4,0xffffffef,0xffffffa4,0xffffff10,0xfffffca1,0xb7,0x248,0xfffffea1,0x65,0xffffffd2,0xffffff7f,0x40f,0x618,0xde,0x278,0x41f,0x1a8,0xffffff6e,0x5d3,0xfffffffe,0xb16,0x37,0x507,0x76,0x970,0x40,0xffffff98,0x41,0xfffffeb6,0x38c,0xffffff96,0xffffffec,0xfffffe86,0xab,0x542,0x445,0xffffff98,0xffffff71,0x35,0x423,0xda,0x33a,0x223,0xffffffdc,0x4c7,0x78,0x2d8,0x1e2,0xffffffcf,0xfffffa22,0xca9,0x3d0,0x618,0x1f0,0xffffff95,0x468,0xfffffec5,0xffffff35,0x41,0xfffffc93,0xfffffea3,0x71,0x449,0x17,0x183,0x131,0xb68,0xfffffdad,0x3d1,0x5af,0x1bd,0x10b,0xfffffc05,0x7ea,0x64d,0x67,0x48a,0xfffffb80,0xffffffd3,0xffffff40,0x890,0xfffffbdf,0xfffffca9,0xfffffa07,0x657,0x864,0xffffff9f,0xffffff8d,0xffffff2a,0xfffff712,0x21,0xd1b,0xfffffffb,0xfffffb6d,0x69,0xffffffdb,0xfffffac2,0x5b4,0x4dc,0x7b5,0x4d2,0x6d,0xffffff2a,0x414,0x64a,0x693,0xffffff61,0xffffff97,0x29,0xffffffac,0x3c7,0xfffffde1,0x17d,0xfffff865,0x33d,0xffffff95,0xffffffc3,0x3cf,0xffffff50,0x5a,0x10,0x7d,0x4c9,0xfffffff9,0xffffffe4,0xffffffac,0xfffffe19,0xfffffcf2,0x2,0xfffffdc8,0xfffff676,0x912,0xffffff6d,0x563,0xa3,0x871,0xffffff9b,0x3b1,0xfffff88c,0x39f,0x2f3,0xfffffdd8,0xfffffefa,0x63e,0xffffffe0,0xfffffeae,0xc,0xffffffe5,0xa8,0x4fe,0x566,0x105,0x1ce,0x49,0xffffff0a,0x648,0x24,0x5c0,0xfffffee1,0x19,0xfffffd86,0xffffff60,0xffffff68,0xfffffeb4,0xffffff29,0x472,0x864,0xffffffba,0xffffffe3,0x5ce,0xb7,0x3c0,0x5c0,0xffffffbb,0xffffff0a,0x203,0x2ef,0xfffffe74,0xb8f,0xffffffc5,0x4b,0x4d4,0xffffffd0,0x6a7,0x9bd,0x6fb,0x2c5,0x53f,0xffffff77,0x25f,0xffffff6c,0x40f,0xffffffb9,0x491,0xffffff62,0x5c0,0xfffffa5b,0xfffffc44,0xffffffe5,0x3c2,0x40f,0xffffff84,0x700,0xfffffea7,0x22,0xffffff19,0x5a,0xffffffc9,0x1,0xfffffef1,0x6c7,0xffffff45,0xfffffefc,0xfffffed3,0x8e,0xfffffb1a,0xfffffffc,0x50a,0xffffffd4,0x56b,0xb,0xfffffff4,0x337,0xffffff0c,0xb1,0xe7,0xffffffc0,0x165,0x1d,0x279,0x303,0xfffff93d,0x3d2,0x20a,0x3b6,0xfffffe8c,0x699,0xffffffef,0x626,0x412,0x4bf,0xffffff5f,0x25c,0xfffffd77,0x5a2,0xfffffee0,0x55d,0xffffff7d,0xfffffc60,0xe5,0x540,0x62c,0xfffffd88,0x453,0xfffffdd3,0x1fc,0x60e,0xfffffe1b,0x47b,0x2d,0xfffffee5,0xffffff73,0xffffff8d,0xfffffff2,0xc9,0x109,0xfffffa3c,0xffffffa6,0xffffff06,0xffffff7c,0x444,0x37,0x768,0x226,0xffffffa6,0xffffffd6,0xffffffe7,0xffffffe3,0x7de,0xfffff1dd,0xfffffe3a,0xffffffef,0x3ac,0xfffffff9,0x4ed,0xffffff43,0xfffffeb4,0xffffff86,0xfffffee5,0xffffffb1,0x24c,0xfffffe54,0x27e,0xffffffba,0xffffff8a,0x48e,0x113,0xffffffdc,0x40,0xfffffe4e,0x22,0xfffffe66,0x59a,0x1c,0x43b,0xfffffeee,0x45,0x4bc,0x3ff,0x8ec,0xffffff40,0x3a7,0xffffffdd,0xffffffb0,0x162,0x463,0x445,0x59a,0x1,0x15d,0xffffffe4,0x19,0xfffff629,0xffffffe0,0x3a2,0x61d,0x271,0xfffffead,0x51,0x87,0x432,0x4ad,0xffffff3e,0x104,0x14e,0x69b,0xfffffbf6,0x2ae,0x434,0x12d,0xffffffee,0xfffffcb6,0xfffffef7,0xfffffab8,0x536,0xfffffef5,0xffffff8f,0xffffff85,0xfffffe06,0xfffffb2a,0xffffffea,0x139,0xfffffcbc,0x215,0xb,0x23,0xfffffc15,0xfffff309,0x273,0xfffffc4c,0x3c7,0x46,0x31,0x51e,0xffffff5e,0x1ca,0xffffffa6,0xfffffee2,0x137,0xffffffc5,0xfffffd9b,0xffffff5a,0xffffff6e,0xfffffdb7,0x3fc,0x226,0xffffff7d,0xfffffdc9,0xfffffff7,0xffffff0c,0xfffffe05,0xffffffe0,0x390,0xfffffe88,0xfffffef9,0x170,0xfffff9fe,0xfffffd25,0xfffffc55,0xfffffee9,0x23,0xfffffbe5,0x54d,0xfffffe6f,0xffffff10,0x6b,0x250,0x43a,0xfffffd2a,0xfffff5f0,0xfffffc30,0xfffffff7,0x635,0xffffff97,0xffffff7e,0x18,0xfffffeee,0x7ac,0x81e,0xffffffe0,0x633,0x11d,0x34d,0x320,0x11,0x3c1,0x51c,0x68,0xfffffb41,0x422,0x6e,0xffffff9c,0x43,0xda,0x4e,0x30d,0xc30,0xfffffb84,0x80d,0xfffffc8a,0x3d8,0xfffffe3d,0xfffffc23,0xffffff63,0x8,0xffffff70,0x58c,0xffffff56,0xffffffd6,0x248,0xfffffea3,0xfffffea8,0xfffff219,0xbc4,0x20c,0x4d,0xffffff18,0x51e,0xfffffd9d,0xffffff9f,0xffffffdc,0xfffffee3,0x819,0xffffffe8,0x2d3,0x267,0xfffffff5,0x149,0x509,0xffffff37,0x4f6,0xc11,0x1ea,0x18,0xfffff936,0xffffffc2,0xc1,0x35,0x2f3,0x1dbb,0xffffec8d,0xfffff6a8,0x163,0x1a7e,0x1b01,0x1919,0xffffd5a9,0x6d7,0xffffddad,0x5e6,0xfffffc84,0xffffefc4,0xffffe253,0xec4,0xffffed76,0x28b1,0x1a0a,0xfffffbac,0x51a,0xffffff11,0x1aca,0xffffefc6,0x3d0,0x2326,0xffffec68,0xfffffca1,0xf84,0x26ba,0xfffff073,0xffffd3d7,0xffffedcc,0xfffff888,0x19a,0x1698,0xffffdff4,0xffffea0d,0x14a8,0xbfc,0x1d4,0xfffff4c2,0x8aa,0xffffd543,0x48c,0xffffec1b,0xffffce0b,0x2228,0x16c7,0x334,0x7e9,0xffffff3f,0x1ce,0x2c2,0xffffd176,0x2b3,0xffffe920,0x173d,0xffffeb67,0xffffe691,0x15f2,0xfffff6e8,0x2b9,0xfffff245,0x9f1,0xd09,0xffffeeed,0x5ca,0xfffff7ea,0xffffd253,0xfffff462,0xffffeff0,0xfffff888,0x3055,0x3c3,0xffffd3da,0xffffe208,0x2c45,0xfffffe85,0xffffe5fd,0x174f,0x107e,0xfffffa28,0xfffffa7a,0x7d,0xb9a,0x3f7,0x20c1,0xfffffebd,0xfffff591,0xe2b,0x1200,0x1827,0xffffe75a,0xffffeefb,0x162,0xfffff166,0x105,0xfffffa60,0xfffffd3a,0x1856,0xffffea0a,0xfffffe6b,0xfffff429,0xfffff7b9,0xfffff882,0xfffff076,0x1d28,0xfffff9f8,0xfffff4de,0x2b5,0x11b3,0x202,0xfffff7f2,0xfffff289,0xfffff346,0xfffffe0f,0x1434,0xe2,0xfffff7c4,0x9f3,0x29d0,0x27a2,0x5c0,0x23b1,0xffffe190,0xfffffa15,0xffffa418,0xfffffe4c,0x1949,0xfffffcbf,0xfffff7cf,0xfffffc91,0xffffffb0,0x271a,0x5cf,0x133,0xfffffe8b,0xfffff99a,0xffffeeac,0xfffff402,0x2b0,0xffffffb0,0x20f3,0xfffffe98,0xfffffaac,0x28aa,0xffffff7c,0x36dc,0xfffff74b,0x10e6,0x3ba,0x143b,0xfffff902,0x1c02,0x2460,0x2276,0x50f,0xfffff8ba,0xfffff4f4,0x1a02,0xfffe635b,0x292,0xfffffcad,0xfffff53e,0xfffff253,0x1d75,0x4a3,0xdb0,0x9d8,0x78c,0x1c22,0xfffff900,0xfffff605,0x158d,0xfffffcda,0xfffff5ee,0xfffff5dd,0x116e,0xffff7f11,0xffffffc4,0x175e,0x1245,0xffffef81,0xfe5,0xffffecda,0xfffff3c4,0xfffffa85,0x358,0xfffefe22,0xfffff746,0xfffffa9a,0xfeb,0x1f78,0xfffff73f,0x638,0xfffff40e,0x18f6,0xb90,0x5d6,0xfffff6d9,0xfffff73d,0xe3a,0xfffff723,0x71e,0x5e0,0xfffffc5a,0xffffe6fc,0x1e76,0xfffffe15,0x32d,0xfffffca8,0xed5,0xfffff7db,0x1c1,0xfffffdfc,0x2703,0xffffffb0,0xfffff779,0xd88,0x29,0xfffff84d,0xfffff03f,0xfffff677,0x503,0x52,0x1597,0xfffffcfa,0xfffff434,0xfffffb49,0xe7b,0xfffffc5f,0x15c9,0x1185,0x2cdb,0xfffffb61,0xfffffed5,0x146e,0xfffffd55,0xfffffe00,0xfffff145,0xfffffb19,0x992,0xc37,0x45e,0x15e,0xfffffecd,0xfffffaf9,0xffffff2f,0x1038,0xbed,0xfffff786,0x17f1,0x137a,0x531,0xa13,0xfffff329,0x230,0xfffff5c6,0xa3e,0x955,0xfffff819,0xfffff00e,0xed1,0xffffff8a,0x1019,0xb3,0x375,0xfffff28c,0xfffffd34,0x7dc,0xfffff269,0x7db,0xffffff33,0x92a,0xb8d,0xffffec84,0xfffff2fe,0xfffff7d9,0x139a,0x87b,0xffffffe1,0xfffffca4,0xfffffa68,0x11ff,0x5a,0xfffff38a,0xfffff397,0x2c8,0x122c,0xfffffca4,0x1dea,0xffffecc5,0x640,0x19e,0xfffffa78,0x309b,0xfffffda5,0x396b,0x9b1,0xfffffb9c,0xfffff59c,0xffffc6cb,0xfffffe03,0x2f,0x51,0x1c8,0x6e2,0xfffffc48,0xfffff79d,0xfffffdee,0x21ec,0xfffffedb,0xffffe9d7,0x33f,0x1fe5,0x842,0x8f0,0xfffff7d8,0x1e92,0x158,0x2094,0xfffff9d3,0x260f,0x93a,0x1109,0xc02,0xfffff0d5,0xffffff57,0x19db,0xfffffe00,0xfffffe3f,0xf37,0x2fd0,0xfffff5d5,0x1a23,0x14d4,0xfffff07a,0xfffff883,0xffffee86,0x1d8f,0xfffffb42,0xb68,0x469,0xfffff77d,0xfffffc2f,0xb43,0xfffff25f,0x21fa,0x650,0x153c,0xffffecb4,0x393f,0xfffff01f,0x748,0x4a9,0xa45,0x2932,0xfffff92d,0xd93,0xfffff2b1,0x2c39,0x14f9,0xfffffa01,0xce7,0xc31,0x222,0xfffffb8c,0xfffffa4a,0xfffff4c7,0xfffffab5,0xffffe72d,0x84d,0xfffffdad,0x9fc,0x238e,0xffffec3f,0x30c,0x837,0x343,0x8ab,0x1aa,0xfffff528,0xffffaab4,0x1669,0xf9,0x3d6,0xe3f,0xffffffb9,0xfffff57b,0xfffffdda,0xfffff7a3,0xffff963e,0xffffee40,0xfffff7a1,0x17c,0x8b1,0x3427,0x4e6,0xfffddd30,0xfffff451,0xfffff666,0x14ae,0xfffffdaa,0xc33,0xfffffbb5,0xfffffc31,0xa72,0xffffc485,0xfffffd30,0x1073,0xfffffe85,0xfffffa2a,0x1ebc,0xaff,0x2023,0x259e,0x94c,0x43c,0xfffff641,0xfffff81a,0xfffff546,0x18c,0x14a4,0x1325,0xb93,0xfffffca9,0x1d9e,0xfffff9fb,0x938,0xffffe862,0x3110,0xfffff332,0xfffff8ee,0xfffff81b,0x261,0xfffff048,0x770,0xfffffad5,0xfffff66d,0xffffff6b,0xc3e,0x1bed,0xfffffc9d,0x1c3f,0x212e,0xfffffbd9,0xffffe84d,0xfffffd73,0xffffee9d,0xfffff34a,0x1300,0x323,0xfffff4e1,0x25ed,0x840,0xfffffe42,0xfffff7c7,0x552,0xcc1,0xfffff71f,0x1dc0,0xfffff806,0xfffffaf2,0xfffff891,0x791,0xa19,0x1049,0xfffffe3d,0x2b9,0xfffff282,0x23bd,0x145,0xfffffd25,0x99,0xfffff3c5,0x1a45,0x43f,0xfffff6b6,0xffffc671,0xfffffd6f,0xfffff7ae,0xfffff9eb,0xd93,0x2af,0xfffffa55,0x10fd,0xa99,0xfffffba3,0xfffff376,0x878,0xfffff7e0,0xffffbf38,0xe73,0xfffffaa5,0xfffff993,0xffff8a17,0xfffffc08,0x392,0xfffff39e,0x38,0xfffff0fe,0x204,0x840,0xfffff8c5,0xfffff491,0xffffe74d,0x371,0x605,0x350a,0xfffff9de,0xfffff53b,0xfffffb56,0xfffff82d,0xfffff9da,0x1916,0x197,0xfffffb59,0xa79,0x34e7,0xfffff5fc,0xaf7,0x1ca,0xfffff9b9,0x2349,0xfffff5f2,0x15dc,0x6c,0x38c,0x260,0x28e,0x1cf,0x1b23,0xffffe60f,0x35d,0xffffebdb,0xffffedeb,0xfffff869,0x24a,0x353c,0x8c8,0xfffffd43,0xfffffba7,0xffffff57,0xfffff362,0xffffee81,0xea5,0x6ba,0xfffff9cb,0xfffff286,0xdd8,0xfdc,0x5fe,0xfffff58d,0xffff546a,0xfffffbb6,0x47f,0x15,0x18ff,0x36,0x911,0x70f,0xffffffdf,0xfffffb61,0xfffffda9,0x40c,0xa46,0x124,0xfffff60c,0xffffff6a,0x6a5,0xfffffcab,0xffffff1a,0xffffffd3,0xffffffe9,0xfffffab6,0xffffff9f,0xfffff783,0xfffffd36,0xfffff869,0xffffff7f,0xfffffffb,0xdec,0xffffff53,0x3e,0x4be,0xffffffe9,0xffffff20,0xfffffe77,0x191,0xffffff04,0x4,0xfffffd31,0xffffff07,0xffffffb7,0xab,0x5fe,0x948,0x182c,0xffffff1e,0x6d1,0x7c7,0x7bb,0xebe,0x493,0xffffffd9,0xfffffe28,0xfffffb98,0xfffffe21,0x23d,0xfffffdde,0x33,0x947,0xfffffbc7,0x59f,0xfffff77c,0xf57,0xfffffa89,0xfffffd34,0x66e,0x3af,0xfffffa7d,0xfffffd84,0xffffffc9,0x76e,0xa04,0x5c7,0xfffffbfc,0x4c6,0xfffffffa,0x3b9,0x5b1,0x20,0x688,0x7a5,0x62f,0x58f,0xfffffc51,0xd99,0xffffffde,0x516,0xfffff9e4,0xffffff39,0xfffffd58,0xfffffe0f,0xffffff1a,0x19,0x6d7,0x1b,0xffffff63,0x5a9,0xc6a,0xfffffeca,0x546,0xfffffe85,0x426,0xffffff2b,0x542,0xfffffb89,0xfffffbd3,0x43a,0x76f,0x665,0xfffffffa,0xffffff8b,0xfffffff4,0xffffff4b,0xfffff6cf,0x2a4,0x1bbc,0xb5,0x1029,0x9f6,0x356,0xd96,0xfffffe74,0x568,0x47b,0xffffff22,0xbfb,0xfffffe40,0xfffffffc,0x854,0xfffffe98,0xfffffc1a,0xfffffa05,0x4dd,0xffffffd3,0x55e,0xfffffb34,0x1079,0x1d8,0x4db,0xffffff14,0xd8c,0xe3c,0x6ba,0xfffffb58,0xffffffde,0x84a,0xfffffbf9,0xffffffee,0xffffffe3,0xfffffd99,0x9b,0xfffffce7,0xffffffed,0xfffff74b,0x5cc,0xfffffdb5,0x9bf,0xfffffb08,0x93,0x427,0x40b,0xfffffc41,0xfffffd9b,0x55b,0xfffff7b6,0xfffff6a0,0xfffffed8,0x7e,0xfffffc25,0x510,0xfffffce2,0xa42,0xffffffaa,0x1f4,0x1d41,0x9c3,0x9d3,0xfffffda4,0xb6f,0xffffff47,0x9ac,0xffffff8d,0xa,0xffffff11,0xffffffa5,0x724,0x732,0xfffffd8c,0x98,0xa22,0x8f4,0x605,0x181,0xfffffbf7,0x1b,0x66,0x1fc,0xfffffff3,0xfffffc25,0xfffffbfb,0x303,0x8ad,0x2ac,0xfffffe72,0xfffffd59,0xffffff9b,0xadc,0xfffffb07,0xfffffe18,0xffffff79,0x95,0xfffffde9,0x14d,0x495,0xfffffa21,0x5f0,0xfffffb89,0x7f0,0xffffffda,0xfffffd1e,0xb86,0xfffffe22,0x651,0xfffffcc4,0x502,0x88d,0xffffff7e,0x394,0xfffffe58,0xaea,0xa74,0xfffff874,0x643,0x3c3,0xfffff6f2,0xffffff47,0x3e0,0x9d4,0xd62,0x11,0xfffffc43,0x537,0x16e,0xfffffe25,0x1be,0x893,0xfffffb23,0x96f,0xfe,0x350,0x6c9,0x4cb,0xffffff97,0x413,0x1397,0x492,0x303,0xa83,0xffffff1b,0x5fa,0x43,0xffffff3c,0x68f,0x12,0x56,0x120,0xfffffe77,0x5f2,0x792,0x5fe,0xffffff56,0xa89,0xffffff01,0x21,0xffffffdd,0x7d6,0x876,0xfffffff5,0x4ef,0xffffffb6,0xfffffc12,0xdf0,0x67a,0x76d,0xfffffcf4,0x617,0xffffffa4,0x692,0x506,0xfffff821,0xba,0xfffffac6,0xffffff7d,0xfffffd4d,0x825,0x547,0x23,0x126,0x7e4,0xfffffee0,0x4c9,0x4f3,0xffffff23,0xd2c,0xe13,0x10b8,0xfffffb47,0x10e,0xffffffb0,0xfffffd74,0x884,0xfffffcab,0xb3b,0xfffffbcb,0x4e6,0xfffffd7e,0xfffffaf7,0x251,0xfffff67d,0xffffff95,0xfffff0ca,0xffffffdd,0xfffffe01,0x98b,0xfffffa19,0xfffffb25,0xfffffe98,0xfffffe57,0x80,0xfffffb9d,0x8b2,0xfffffd43,0xffffff1b,0xe,0xffffffef,0x6a5,0xffffff82,0xfffffbf2,0x22b,0x877,0x90c,0x5d6,0x5c2,0xffffff4d,0xfffff649,0xffffff33,0xaa,0x404,0xfffffada,0x4c0,0x676,0x684,0x522,0x302,0x7,0x94b,0x8a,0x586,0xffffff64,0xffffff25,0xfffffc04,0xd87,0xffffffd5,0xfffffff1,0x61b,0x1e,0xef9,0xfffffaa2,0x3,0xa59,0x55b,0x5e6,0xffffff07,0xffffffc1,0x872,0xffffffbf,0x424,0xffffff62,0xfffffde4,0x80e,0x222,0x500,0xfffffd03,0x81,0xd98,0xe1e,0x69c,0x61b,0x89c,0xee4,0xfffffefa,0x96d,0x6e7,0x62e,0xb87,0x29,0x394,0x212,0xfffffd77,0x6a5,0xfffffd5b,0x3c5,0x5ba,0xfffffcde,0xfffffe97,0xffffffda,0xffffff13,0x889,0xfffffb40,0x316,0xfffffd4d,0xfffffca3,0xffffff78,0x86d,0xffffffb9,0x1a7,0xffffffbf,0x225,0xffffffef,0xffffff83,0xffffffd2,0xfffffae5,0xfffff2be,0xfffffdd8,0xfffffce3,0xffffffbf,0xf88,0x2e5,0xffffea48,0xfffffa3f,0xffffffe6,0xffffff1c,0xfffffff4,0x72c,0xfffffda8,0x565,0xffffff89,0x566,0xfffffac7,0xfffffe6d,0x710,0x760,0xb24,0xfffffd88,0x191,0x60c,0x16b,0xffffff53,0xfffffb9c,0xffffff72,0x5ec,0xffffff25,0xffffffac,0xfffffc7b,0x63b,0xffffff72,0xe72,0xd4d,0xffffffa4,0xfffffff0,0x8bd,0x3e1,0x337,0xffffff3e,0xa49,0x4df,0xfffff5d7,0xfffff85b,0x666,0xfffffd9b,0xffffffda,0x4c,0xae2,0xdaf,0xfffffef5,0x5e9,0xab0,0xfffffc64,0xfffffdc8,0xfffffe30,0xfffff60d,0x43,0x821,0xfffffe20,0x669,0xffffff6e,0x15d0,0xffffd67b,0xfffff54f,0xcc1,0xfffff195,0x163f,0xfffffa5d,0xfffff276,0x63d,0xfffff385,0xfffffe43,0x11d5,0xffffd922,0xfffff516,0xfffff9ec,0xbff,0x1ef8,0x1bb1,0xe2b,0x5b7,0xffffcacc,0xffffd462,0x144f,0x2ed,0xfffffc9f,0x3dc,0xfffffe84,0x62e,0x215,0x47f,0x11d7,0xffffee33,0xffffed75,0x5d7,0xffffff93,0xfffffea6,0xfffffc18,0xbc7,0xbe,0x67f,0xe60,0x3a6,0xa45,0xffffdce1,0xaaa,0xfffff5a3,0x41c,0xfffffb2e,0x770,0xfffffcf3,0x8d3,0x1145,0xeb6,0x13b1,0x1657,0xb71,0xfffffee4,0xffffea43,0xfffffc1c,0x715,0x818,0xffffe08f,0xffffe2a7,0x159c,0xfffff4fa,0x19e,0xffffefd3,0x10bd,0xfffff988,0xfffffddd,0xffffffcb,0x16b2,0x2225,0xfffff914,0xffffdd13,0x639,0x1f8b,0x1098,0xffffeac8,0xfffffbd7,0x198,0xffffdfa0,0xfffffbd6,0xffffe120,0xfffff9d4,0xffffcede,0xc1e,0xffffdcd1,0xffffd5da,0xffffec80,0xffffe706,0x24e1,0xffffd790,0xffffd97c,0x2c4f,0xfffffdc6,0xffffff64,0xb46,0xffffedb9,0xfffff25b,0xfffff357,0xfffffb31,0xfffff401,0xffffe304,0xffffe3eb,0xffffd567,0xffffea1a,0xfffff7c0,0xffffff3c,0xffffff69,0xfffff82b,0xffffce7b,0xffffd5cf,0x7ca,0xfffec5f4,0xffffd400,0xafb,0xffffe306,0x1250,0xffffe0b9,0xfffff2ed,0xffffe17f,0xffffdff1,0x13d7,0x4bf,0xffffef2a,0x395,0xffffe696,0xfffffb37,0x7f2,0xffffd3e9,0xffffeecb,0xfffff64e,0xffffda74,0xffffdbb0,0xffffe2a6,0x2c54,0xffffdb38,0xffffd94d,0xffffdbc5,0xfffffa0a,0xfffff29e,0x2919,0xffffd907,0x2bf,0xffffeed0,0xffffdd6b,0xfffff448,0xffffdbf1,0xfffff8d0,0xfffff167,0xffff653d,0xffffe206,0xffffdf9e,0xffffed0a,0xffffdfbf,0xfffff8bb,0x6b9,0x1edb,0xffffdb09,0xfffff9df,0xffffe1f7,0xfffff1a5,0xffffe24a,0xffffef6f,0x306a,0xb96,0xffffe567,0x3e9,0xfffffbef,0xffffedfb,0xffffec01,0xffffd975,0x66e,0xfffffc17,0x2a00,0x2c99,0x1d0,0xfffff149,0xffffe203,0xffffd79c,0xfffff25a,0x20d6,0xfffffd76,0xfffff9ff,0xffffd856,0x1282,0xfffff224,0x7,0xfffffea3,0x266e,0x4d1,0xffffe453,0xffffeac4,0xffffdb32,0xffffe3bf,0x2cbe,0x2603,0xffffe894,0xffffe530,0xfffff60a,0xffffe2f9,0xffffd7f8,0xffffdbd0,0xfffffeff,0xffffea58,0xffffcd56,0xffffef4d,0xfffff352,0xfffff612,0xfffffefa,0xffffe581,0xfffffa28,0xfffff309,0xffffdd71,0xfffffd83,0x454,0xffffe69a,0xffff5617,0xffffcc56,0xfffffa9a,0xffffd8ba,0x37b9,0xffffebf9,0xfffff753,0x570,0xffffe694,0xbbc,0xfffff59d,0xffffef4d,0x10d0,0x426,0xffffde81,0xffffe474,0xffffe2bf,0xffffdacd,0x16df,0xfffff8f3,0xffffe626,0x1c3f,0xffffdf81,0xffffec98,0xfffff712,0xffffd005,0xffffce23,0xffffea47,0xfffff057,0xfffff0e3,0xffffe83c,0xffffe48b,0xfffff0c4,0xfffff70f,0xffffe650,0xffffe2c3,0xffffed18,0xfffee07f,0xffffe372,0xffffce07,0xcc,0xfffff27e,0xfffffaaf,0xffffef8e,0x1cab,0xfffff73e,0x3a7,0xffffe0d0,0xffffdb9f,0x925,0xffffe232,0xffffd488,0xfffff4e2,0xffffe6f1,0xfffff1dd,0xffffead7,0xffffde9e,0xffffdcd1,0xffffe271,0xfffffd6e,0xffffe06f,0xfffff79d,0xffffed7e,0xffffebc3,0xffffe28b,0x2e59,0xffffe3df,0xffffd734,0xffffe30a,0xffffe44c,0xffffe56e,0xffffe130,0xffffd40f,0xa62,0x367,0xfffffb54,0xffffda3a,0xfffff94f,0xfffffbf5,0x2db4,0xffffffe9,0xffffdbfa,0xffffe619,0xffffff2a,0xffffe6cc,0xffffee53,0xfffff65d,0xa6f,0xffffcc6b,0xffffe8da,0xfffff9d0,0x2b74,0xffffd3f9,0xffffe0a8,0xfffff8b9,0xffffdab0,0x211a,0xfffff4f6,0xffffe9f9,0xffffd02f,0xffffe475,0xffffdc2a,0xfffff77d,0xfffff975,0xffffe7a3,0xffffe9b3,0xffffd50a,0xffffe551,0xffffeee5,0xffffe7b9,0x984,0xffffe32a,0xffffe20c,0x2483,0x1a51,0xffffe49c,0xffffdfd0,0xffffde58,0xfffff583,0xffffe359,0xffffc5a7,0xfffffc71,0xffffde57,0x2a6,0xffffe08c,0xffffdf3f,0xffffe3cb,0x2df,0xffffea7f,0xffffeddc,0xffffe495,0x1f05,0xffffd7dd,0xfffff164,0xffffe71d,0xffffebdf,0xfffffbfe,0xffffc469,0xfffff380,0xffffff17,0xffffe7a1,0xffffc293,0xffffa8bf,0xfffff406,0xffffed6d,0xffffd8af,0xfffff658,0xfffffbe6,0xffffe8be,0xffffd7aa,0xfffff8c7,0xffffde7d,0x1c,0xffffedc4,0xfffff331,0xffffdcb5,0xffffe6d4,0xffffd950,0xfffff00c,0xfffff334,0xffffef41,0xffffe115,0xa75,0xfffffbb5,0xffffe79e,0xffffebfa,0x1af5,0xfffff252,0x45b,0xffffe42f,0xffff4cfc,0xfffffd9c,0xfffff68c,0xffffb0df,0xffffe369,0xffffec5d,0xffffd919,0xfffff93c,0xffffe5fd,0xfffff246,0xffffec93,0xfffff12a,0xfffff377,0x12c,0xffffe6a7,0xffffec3c,0xffffe743,0xffffe62c,0xfffff274,0x468,0xffffef43,0xffffe1b1,0xffffdfa1,0x339,0xffffe1a1,0xffffe457,0xfffff157,0x677,0xffffe241,0xffffc5f5,0x538,0xfffff95b,0xfffffa91,0xffff85c6,0xffffeb17,0xffffe39d,0xffffd815,0x15d,0xffffde60,0xffffe329,0xfffff82e,0xffffeba9,0xffffdff7,0xffffe48b,0xfffffadb,0xffffe2e4,0xfffff2b2,0x3fb,0xfffffc17,0xffffe4e9,0xffffec53,0xffffc015,0xffffe04c,0xffffe8a8,0xffffdcd2,0x87,0xfffff5d2,0xffffee04,0xffffe355,0xd09,0xffffbaa3,0xffffe852,0x275,0xb84,0xffffe58b,0xffffe90d,0xffffd0d5,0x5d0,0xffffd0ca,0x4f2,0xffffdf7b,0x19f2,0x3c6,0xffffe599,0xffffef05,0xffffbc69,0xffffe99b,0xffffde5d,0xffffe0db,0xfffffdc1,0x20f8,0xfffff5e5,0xffffcc47,0xffffe504,0xfffff16b,0xffffe125,0xfffffd4e,0xfffff28c,0xfffff73a,0x1759,0xffffdf3e,0xfffff9fa,0xffffe55c,0xfffffb25,0xfffff051,0xffffde56,0xffffee28,0x207,0xfffff2ca,0xffffec9c,0xffffd5cb,0xffffe1f2,0x1154,0x2bd,0xffffe238,0xffffe8d8,0xffffed0b,0xffffd80a,0xb1d,0x144c,0xfffff38c,0xffffefa5,0xffffff39,0xffffe85c,0xfffff5a2,0x1629,0xffffff8c,0xffffed7e,0xfffff22a,0xffffec7b,0x103b,0xfffffd56,0x133,0xfffff7e9,0xfffff4f6,0x20e7,0xffffe751,0xfffffee7,0xffffcdbb,0xfffff2a2,0xffffe65b,0xffffe0bd,0xffffe762,0xffffeac9,0xffffd812,0xd8e,0xffffe551,0xfffff597,0xffffdf9c,0xfb4,0xffffe9d3,0xfffff0fa,0x1329,0xffffea17,0xffffe813,0xffffe9d3,0xfffff670,0xffffe8ee,0x24d6,0x8f1,0xfffffd49,0xffffdcd2,0xffffdda7,0xffffedf0,0xffffe9b5,0xfffff593,0xfffffd5f,0xffffe456,0xffffdf17,0xffffe60a,0xffffe4ca,0xffffe2df,0xffffea8b,0xfffffd0b,0xffffe237,0xffffdcab,0xa56,0xffffe7b4,0xfffffc12,0x441,0xffffe73b,0xffffdea2,0xa1a,0xffffffb6,0x86b,0x13f,0x567,0x291,0x59a,0x483,0x31,0x3f7,0x35,0x7ab,0xfffffffb,0xf,0x460,0x1106,0xca1,0x2bc,0x6cf,0x978,0x1bb,0x16c9,0xfffffc52,0x164,0x9,0x4f,0x9a,0x82d,0x2b67,0xf7,0xaed,0x4b5,0x1b3,0x52e,0xfffff5eb,0x147,0xb98,0xffffffef,0x3ad,0xf5,0x714,0x232,0x287,0xb03,0xfffffdc5,0xfffffee2,0x10b9,0xffffff73,0x64,0xb1c,0x20c,0x84b,0x3de,0x3c1,0x10a,0x757,0x757,0x276,0xfa,0x91,0x9cb,0xffffff7e,0xbca,0x9,0xc4b,0xffffff7c,0xffffffee,0x1cd,0xffffffe9,0xfffffe5b,0x0,0xfffffff6,0x3d8,0x3c,0x76a,0x2c7,0x9bf,0x235,0x263,0x1c,0xffffff39,0x156,0x468,0xfffffffe,0x81f,0x287,0x690,0xc7,0x17a6,0x2c0,0x33d,0x411,0x11,0x930,0x240,0x68,0x777,0xaba,0xfffffff7,0x5e2,0x112,0x64b,0x4ad,0xbdc,0x4ff,0xffffffc0,0x26d,0x88f,0x470,0x1415,0xcba,0x127,0x1,0x1d7,0xc,0x29c,0xfffffff6,0x3d4,0x101,0xffffffb6,0x9b6,0xfffffff6,0x17,0x20c,0x876,0x14e,0x43f,0xffffffaf,0xb16,0x90e,0xf59,0x661,0x8dd,0xb57,0x3c8,0x900,0x1366,0x21d,0xffffffff,0xfffffffb,0x110,0x141,0x6e6,0x4ba,0xbeb,0x10c0,0x7f,0x3ee,0x56,0x55c,0x914,0xde8,0xffffffec,0x7a,0xfffffff1,0xb,0x858,0x88d,0xfe,0x86b,0x10,0x152,0x4e2,0xfffffff8,0x3c,0x1c,0x85,0xebe,0xffffff67,0x5d1,0x46,0x14e,0x8,0x4c,0x683,0xfffff5ac,0x19,0xffffff7a,0xdb5,0x5cf,0x20ce,0x503,0x978,0x4b3,0xa10,0x2d,0x13c,0x555,0xffffff5a,0x3c1,0xfffffec4,0xfffffffe,0xfffffff1,0x8c,0x158,0x27,0xfffffffe,0x1ce1,0xe,0x9d5,0xfffffff1,0xffffff67,0x35b,0x7b7,0x49f,0xffffff86,0x35e,0x434,0x30f,0x27,0xcb,0x866,0xfffffee9,0xb9,0x4b5,0xc95,0x339,0x6d1,0xc88,0x12a,0x2c,0xa0c,0x681,0xed,0x9a1,0x184b,0xf,0xffffffd3,0xfffffc96,0x659,0x337,0x14,0x1b3,0xe5,0xbb9,0x390,0x6d9,0x30e,0x174,0xc3,0xfffffe8b,0x1351,0x134,0xaa1,0xffffffe9,0xffffffe4,0xffffffee,0xffffffd2,0x705,0xb5,0x3fb,0xbc1,0x525,0x30e,0x6c2,0xbb,0x643,0x1e,0x325,0xfffffe0b,0x3bf,0x14c1,0x4,0xffffffd4,0x642,0xd91,0x1ae,0xffffff8b,0x29d,0x1bf,0x61,0xf3e,0x75b,0xc3,0x1b89,0x328,0x40,0x80b,0x4ac,0x1bc,0xfffffffd,0x9c7,0x51e,0x5fc,0x97,0x4f5,0x9f3,0x292,0x45c,0x8,0x16dc,0x96,0xffffff44,0x6,0xfffffff0,0x392,0xfffffed6,0x4f,0x5d0,0x331,0x686,0x5a0,0x31f,0x5d,0xf9,0x9b,0x1097,0x91,0xfffffffd,0x867,0x31a,0xfffffffd,0xfffffff2,0x2ae,0x6f4,0x679,0xffffffe1,0x531,0xffffffdc,0x4d9,0x693,0xb02,0x59e,0x245,0xf9,0x803,0xfffffee6,0xe39,0x1be,0x2c,0x38a,0x94c,0x2ed,0xffffffde,0xfffffef7,0x48b,0x332,0xd2,0xaeb,0x1e0,0x147f,0xfffffffd,0xffffffd0,0xb,0xfffffff0,0x133b,0x5df,0x4e,0xda0,0x329,0x38,0x2bd,0xa03,0x4af,0x6a7,0x7c9,0x52b,0x255,0xfffffffb,0xc6,0x41f,0x262,0x24,0xfffffe52,0xb4,0xeb,0x35a,0x51f,0x5,0x74a,0x907,0xfcf,0x0,0xffffff70,0x9,0x695,0xa4,0x14c9,0xfffffff9,0xfae,0x14a0,0x3de,0x76,0x1f8,0x989,0x5d7,0x2d4,0x107f,0xb0a,0xfffffff0,0xd0,0x415,0xffffff82,0x352,0x13bb,0x5f7,0xc81,0x8dd,0x1f,0x3b4,0x2c,0xbd9,0x150,0x47,0xffffff88,0xba6,0x0,0x3f,0x28f,0x56f,0x57,0xfffffe6f,0x200,0x22,0x304,0x3a,0x9dd,0xbc8,0x56a,0xffffffd4,0xfffffe20,0x640,0x17,0x707,0xf8e,0x4e,0x690,0xb28,0x783,0x1247,0x9f1,0x431,0x17c,0x7d2,0xe0,0x716,0x68,0x327,0x3d,0xfffffffb,0x569,0x144,0x10,0x906,0x298,0x8f8,0xd7,0xfffffd65,0xffffffd3,0xa86,0xad3,0xffffff46,0x2d3,0xffffff4f,0x262,0x65d,0x82f,0xc0f,0xbfb,0x37,0x18f,0x795,0x9b,0xfffffe42,0x93e,0xffffffad,0x16,0xffffff92,0x158,0x222,0x3f,0xffffffbe,0xfffffff4,0x2d,0xf1d,0x3b7,0xfffffe13,0x32a,0x0,0x6c4,0xcb0,0xffffff06,0x77a,0x356,0x2df0,0xfffff7d8,0xfffff9d3,0xbc0,0x4e5,0xfffff8bf,0xffffef75,0x770,0xfffff3fb,0x302,0xcda,0x2b6,0x16fe,0xfffffd68,0xd1b,0xfffff768,0xffffffdd,0x5b6,0xfffff640,0xffffec70,0xfffff945,0xd9a,0xfffffcbe,0x24b,0xfffff575,0xfffff55b,0x61,0x8d2,0xb5d,0x584,0x8f0,0xfffffa2b,0xee8,0xffffed2a,0x5db,0xfffff11b,0xfffff10b,0xfffffecd,0x229,0xfffff742,0xffffee00,0x5c5,0x443,0x106c,0xffffeee2,0xfffff318,0xfffff682,0xa2c,0xffffed39,0xfffff6d5,0xfffff9ac,0xfffffc85,0xffffebe8,0xfffffcb2,0x1686,0xfffff821,0xffffea17,0x334,0x37f,0x1252,0xffffe99d,0xfffffe46,0xfffffe2f,0xfffffc24,0x572,0xca9,0x130,0xffffff08,0xffffeaab,0x12a4,0xffffde89,0x746,0x15b5,0xfffff425,0xd17,0xffffe0b8,0xa08,0xffffeb9a,0xfffff442,0xfffffbbd,0x2fe,0xffffff54,0xfffffe84,0xffffdab7,0x409,0xffffea17,0x99f,0xcdd,0x51b,0x8cd,0xc9a,0xfffffcfe,0x50f,0x18e3,0x35e,0xffffe2b7,0xfffff4f5,0x137b,0x6ac,0xfbc,0x2c6,0xffffe1fa,0xfffffd10,0xfffffec8,0x561,0x1af0,0xfffffac7,0x1197,0xfffff275,0xb81,0xfffff8d0,0x948,0x2bf,0xffffea2c,0xffffecf8,0x1a9b,0xffffeec3,0xffffe82f,0xfffff95b,0xfffff4ed,0xffffe629,0xa09,0xfffffa4a,0x1c72,0x19b8,0xffffecd6,0x1141,0xfffffd83,0x8d5,0x20e9,0xfffff0bb,0xffffdd47,0xa27,0xfffffece,0xb0e,0x951,0x1940,0x14f2,0xfffff306,0xfffff191,0x34,0xfffff8d8,0xfffff2e3,0x516,0x1b0,0xffffff02,0xfffffab6,0xfffff3c5,0x1360,0xfffff841,0xfffffff8,0xfffff907,0xffffe8c2,0x270e,0xffffec28,0xfffffda8};